// ─── Auto-generated by train_drone_detector.py ───
// Generated: 2026-07-04T14:04:20.166083
// Model size: 8,880 bytes (8.7 KB)
//
// Include this file in your STM32 project and pass
// g_drone_model to tflite::GetModel().
//

#ifndef DRONE_MODEL_H
#define DRONE_MODEL_H

#include <stdint.h>

alignas(16) const uint8_t g_drone_model[] = {
  0x1c, 0x00, 0x00, 0x00, 0x54, 0x46, 0x4c, 0x33, 0x14, 0x00, 0x20, 0x00,
  0x1c, 0x00, 0x18, 0x00, 0x14, 0x00, 0x10, 0x00, 0x0c, 0x00, 0x00, 0x00,
  0x08, 0x00, 0x04, 0x00, 0x14, 0x00, 0x00, 0x00, 0x1c, 0x00, 0x00, 0x00,
  0x88, 0x00, 0x00, 0x00, 0xe0, 0x00, 0x00, 0x00, 0x10, 0x0e, 0x00, 0x00,
  0x20, 0x0e, 0x00, 0x00, 0xd0, 0x21, 0x00, 0x00, 0x03, 0x00, 0x00, 0x00,
  0x01, 0x00, 0x00, 0x00, 0x04, 0x00, 0x00, 0x00, 0xfa, 0xf0, 0xff, 0xff,
  0x0c, 0x00, 0x00, 0x00, 0x1c, 0x00, 0x00, 0x00, 0x3c, 0x00, 0x00, 0x00,
  0x0f, 0x00, 0x00, 0x00, 0x73, 0x65, 0x72, 0x76, 0x69, 0x6e, 0x67, 0x5f,
  0x64, 0x65, 0x66, 0x61, 0x75, 0x6c, 0x74, 0x00, 0x01, 0x00, 0x00, 0x00,
  0x04, 0x00, 0x00, 0x00, 0x94, 0xff, 0xff, 0xff, 0x16, 0x00, 0x00, 0x00,
  0x04, 0x00, 0x00, 0x00, 0x08, 0x00, 0x00, 0x00, 0x6f, 0x75, 0x74, 0x70,
  0x75, 0x74, 0x5f, 0x30, 0x00, 0x00, 0x00, 0x00, 0x01, 0x00, 0x00, 0x00,
  0x04, 0x00, 0x00, 0x00, 0x02, 0xf1, 0xff, 0xff, 0x04, 0x00, 0x00, 0x00,
  0x09, 0x00, 0x00, 0x00, 0x6d, 0x66, 0x65, 0x5f, 0x69, 0x6e, 0x70, 0x75,
  0x74, 0x00, 0x00, 0x00, 0x02, 0x00, 0x00, 0x00, 0x34, 0x00, 0x00, 0x00,
  0x04, 0x00, 0x00, 0x00, 0xdc, 0xff, 0xff, 0xff, 0x19, 0x00, 0x00, 0x00,
  0x04, 0x00, 0x00, 0x00, 0x13, 0x00, 0x00, 0x00, 0x43, 0x4f, 0x4e, 0x56,
  0x45, 0x52, 0x53, 0x49, 0x4f, 0x4e, 0x5f, 0x4d, 0x45, 0x54, 0x41, 0x44,
  0x41, 0x54, 0x41, 0x00, 0x08, 0x00, 0x0c, 0x00, 0x08, 0x00, 0x04, 0x00,
  0x08, 0x00, 0x00, 0x00, 0x18, 0x00, 0x00, 0x00, 0x04, 0x00, 0x00, 0x00,
  0x13, 0x00, 0x00, 0x00, 0x6d, 0x69, 0x6e, 0x5f, 0x72, 0x75, 0x6e, 0x74,
  0x69, 0x6d, 0x65, 0x5f, 0x76, 0x65, 0x72, 0x73, 0x69, 0x6f, 0x6e, 0x00,
  0x1a, 0x00, 0x00, 0x00, 0x2c, 0x0d, 0x00, 0x00, 0x24, 0x0d, 0x00, 0x00,
  0x10, 0x0d, 0x00, 0x00, 0xfc, 0x0c, 0x00, 0x00, 0xe8, 0x0c, 0x00, 0x00,
  0xd4, 0x0c, 0x00, 0x00, 0xb4, 0x0c, 0x00, 0x00, 0x64, 0x0c, 0x00, 0x00,
  0x54, 0x06, 0x00, 0x00, 0x04, 0x06, 0x00, 0x00, 0x74, 0x01, 0x00, 0x00,
  0x44, 0x01, 0x00, 0x00, 0xec, 0x00, 0x00, 0x00, 0xe4, 0x00, 0x00, 0x00,
  0xdc, 0x00, 0x00, 0x00, 0xd4, 0x00, 0x00, 0x00, 0xcc, 0x00, 0x00, 0x00,
  0xc4, 0x00, 0x00, 0x00, 0xbc, 0x00, 0x00, 0x00, 0xb4, 0x00, 0x00, 0x00,
  0xac, 0x00, 0x00, 0x00, 0xa4, 0x00, 0x00, 0x00, 0x9c, 0x00, 0x00, 0x00,
  0x94, 0x00, 0x00, 0x00, 0x74, 0x00, 0x00, 0x00, 0x04, 0x00, 0x00, 0x00,
  0xe2, 0xf1, 0xff, 0xff, 0x04, 0x00, 0x00, 0x00, 0x60, 0x00, 0x00, 0x00,
  0x0c, 0x00, 0x00, 0x00, 0x08, 0x00, 0x0e, 0x00, 0x08, 0x00, 0x04, 0x00,
  0x08, 0x00, 0x00, 0x00, 0x10, 0x00, 0x00, 0x00, 0x28, 0x00, 0x00, 0x00,
  0x00, 0x00, 0x06, 0x00, 0x08, 0x00, 0x04, 0x00, 0x06, 0x00, 0x00, 0x00,
  0x04, 0x00, 0x00, 0x00, 0x01, 0x00, 0x00, 0x00, 0xeb, 0x03, 0x00, 0x00,
  0x0c, 0x00, 0x18, 0x00, 0x14, 0x00, 0x10, 0x00, 0x0c, 0x00, 0x04, 0x00,
  0x0c, 0x00, 0x00, 0x00, 0xbf, 0x0f, 0xf4, 0x8d, 0x1f, 0x24, 0x44, 0x54,
  0x02, 0x00, 0x00, 0x00, 0x02, 0x00, 0x00, 0x00, 0x04, 0x00, 0x00, 0x00,
  0x06, 0x00, 0x00, 0x00, 0x32, 0x2e, 0x32, 0x31, 0x2e, 0x30, 0x00, 0x00,
  0x4e, 0xf2, 0xff, 0xff, 0x04, 0x00, 0x00, 0x00, 0x10, 0x00, 0x00, 0x00,
  0x31, 0x2e, 0x31, 0x34, 0x2e, 0x30, 0x00, 0x00, 0x00, 0x00, 0x00, 0x00,
  0x00, 0x00, 0x00, 0x00, 0xe8, 0xe0, 0xff, 0xff, 0xec, 0xe0, 0xff, 0xff,
  0xf0, 0xe0, 0xff, 0xff, 0xf4, 0xe0, 0xff, 0xff, 0xf8, 0xe0, 0xff, 0xff,
  0xfc, 0xe0, 0xff, 0xff, 0x00, 0xe1, 0xff, 0xff, 0x04, 0xe1, 0xff, 0xff,
  0x08, 0xe1, 0xff, 0xff, 0x0c, 0xe1, 0xff, 0xff, 0x10, 0xe1, 0xff, 0xff,
  0x96, 0xf2, 0xff, 0xff, 0x04, 0x00, 0x00, 0x00, 0x48, 0x00, 0x00, 0x00,
  0x50, 0xca, 0x81, 0x1a, 0xfa, 0xc5, 0x04, 0x1b, 0xd6, 0x05, 0x18, 0xf7,
  0xd2, 0x4e, 0x81, 0xd1, 0x78, 0xab, 0xb9, 0xf5, 0xb3, 0xa0, 0xcb, 0x54,
  0x20, 0x7f, 0x51, 0x26, 0x87, 0x67, 0x06, 0x81, 0xcf, 0x54, 0xeb, 0x44,
  0xc8, 0x7f, 0xf1, 0xb6, 0x5d, 0xb4, 0xf0, 0x55, 0x9b, 0xd5, 0x41, 0x17,
  0xaa, 0x21, 0x3f, 0x81, 0x35, 0x2f, 0x73, 0x51, 0x81, 0xd3, 0xfb, 0xf3,
  0x4f, 0x2e, 0x52, 0x7a, 0x24, 0xd7, 0x2e, 0xb7, 0x29, 0x23, 0x81, 0xa3,
  0xea, 0xf2, 0xff, 0xff, 0x04, 0x00, 0x00, 0x00, 0x20, 0x00, 0x00, 0x00,
  0x86, 0x11, 0x00, 0x00, 0x49, 0x08, 0x00, 0x00, 0xfe, 0xf8, 0xff, 0xff,
  0x1b, 0x02, 0x00, 0x00, 0x92, 0x00, 0x00, 0x00, 0xe8, 0xfe, 0xff, 0xff,
  0x5e, 0xd7, 0xff, 0xff, 0x55, 0x01, 0x00, 0x00, 0x16, 0xf3, 0xff, 0xff,
  0x04, 0x00, 0x00, 0x00, 0x80, 0x04, 0x00, 0x00, 0xfc, 0x58, 0xdf, 0x1f,
  0x4b, 0x1a, 0xed, 0xd1, 0xeb, 0xfe, 0xf0, 0x20, 0x0b, 0x02, 0xe0, 0x2e,
  0xeb, 0xe4, 0x81, 0xbb, 0xb2, 0xdf, 0xc9, 0xe3, 0x05, 0x1d, 0xe8, 0xf2,
  0x1a, 0x1c, 0xe0, 0xca, 0x16, 0x02, 0xde, 0x12, 0xee, 0xf4, 0xef, 0x32,
  0xfb, 0xee, 0xba, 0xb8, 0xb2, 0xcd, 0xf1, 0xde, 0xf7, 0x24, 0xea, 0xf0,
  0xfa, 0xe7, 0xf7, 0xde, 0x05, 0xdf, 0x19, 0xf7, 0xda, 0x0d, 0x11, 0xea,
  0x0f, 0xdc, 0xc2, 0xc7, 0x81, 0xcc, 0x06, 0xf0, 0xe3, 0x0e, 0xc9, 0x35,
  0x3f, 0xd2, 0xba, 0xbf, 0xe5, 0x21, 0xce, 0xf3, 0x28, 0x11, 0xbe, 0x08,
  0xf2, 0xef, 0x81, 0xc1, 0xf3, 0xcb, 0xc7, 0xbf, 0xdf, 0xe9, 0xe7, 0x17,
  0xdc, 0xec, 0xeb, 0x8c, 0xf3, 0x1b, 0xf2, 0x0a, 0x33, 0x1f, 0xc8, 0x10,
  0xf9, 0xe3, 0x8d, 0xe1, 0xf7, 0xf7, 0xd2, 0xa9, 0xcf, 0x33, 0x8f, 0x38,
  0x21, 0x0f, 0xd9, 0xe2, 0xf7, 0x46, 0xe5, 0x16, 0x33, 0x42, 0xc5, 0x43,
  0xf6, 0x21, 0x88, 0xd2, 0x23, 0x02, 0xea, 0xdd, 0xf4, 0xa8, 0x39, 0xee,
  0xaf, 0x2c, 0xd7, 0x0d, 0xe9, 0x03, 0x08, 0x41, 0x19, 0x07, 0xc9, 0x12,
  0xe4, 0xc1, 0xf4, 0xfe, 0xd8, 0xf7, 0x9e, 0xb4, 0x07, 0x02, 0xef, 0x2f,
  0xb7, 0x11, 0x0a, 0x10, 0x05, 0x17, 0x0c, 0x2c, 0x33, 0x0e, 0xbe, 0x73,
  0xdc, 0x10, 0xad, 0xfc, 0xe8, 0xe2, 0xe7, 0xb5, 0x18, 0xbd, 0x28, 0xf9,
  0x9e, 0x15, 0x14, 0x29, 0x08, 0x1b, 0x00, 0x7f, 0x2f, 0x02, 0xe3, 0x29,
  0xf3, 0x04, 0xd6, 0x34, 0xe0, 0xee, 0xb6, 0xd1, 0xa2, 0xda, 0xe1, 0x81,
  0x14, 0x54, 0x3f, 0xc1, 0x12, 0xf9, 0xeb, 0xbc, 0xdc, 0xe3, 0x1d, 0x17,
  0xf4, 0x0d, 0x2d, 0xe9, 0x00, 0x32, 0x2a, 0x7a, 0xca, 0xfe, 0xe7, 0xab,
  0xfa, 0x04, 0x28, 0xb5, 0xfc, 0xef, 0x87, 0xd8, 0xf3, 0xc6, 0x1a, 0x17,
  0x50, 0x26, 0xc1, 0xfd, 0x0e, 0xea, 0x28, 0x3c, 0xfe, 0x07, 0x34, 0xde,
  0x00, 0x00, 0x5e, 0xef, 0x10, 0x01, 0x0a, 0xfc, 0x18, 0xfa, 0x1c, 0xf6,
  0x60, 0x5a, 0x2f, 0x5a, 0x34, 0xcd, 0x2e, 0x5a, 0xec, 0x13, 0xd7, 0x15,
  0x1a, 0x0b, 0x0b, 0x20, 0xf6, 0xd8, 0xe5, 0xbd, 0x0e, 0xfb, 0xe3, 0xe8,
  0x0d, 0x0d, 0x81, 0x9b, 0xb3, 0xd3, 0xef, 0xa4, 0x0a, 0x06, 0x15, 0x1b,
  0x10, 0xe5, 0xf7, 0x2b, 0xeb, 0xdc, 0xc6, 0xc3, 0xe3, 0x11, 0xd9, 0x03,
  0x17, 0xf1, 0x85, 0x95, 0xde, 0xee, 0xe5, 0xc7, 0x08, 0xf5, 0xe2, 0x17,
  0xf9, 0x01, 0xfc, 0x09, 0x0a, 0xe1, 0xf0, 0xd0, 0xd9, 0x00, 0xd1, 0xe7,
  0x24, 0xf4, 0x90, 0x8e, 0xe9, 0xf1, 0xdb, 0xc4, 0xef, 0x35, 0x13, 0x35,
  0xf7, 0xe6, 0xf5, 0xf9, 0xdf, 0xe9, 0xe9, 0xfa, 0xc4, 0xf2, 0xe2, 0xfe,
  0x02, 0xee, 0xb6, 0xae, 0xdb, 0xdd, 0xdc, 0xe4, 0xf3, 0x42, 0x01, 0x23,
  0x1b, 0x22, 0xea, 0x1f, 0x0a, 0xce, 0x8d, 0x0c, 0xd2, 0xfd, 0x09, 0x19,
  0x07, 0xf8, 0x81, 0xb3, 0xd2, 0xcb, 0xe1, 0xdf, 0xee, 0x0d, 0xfe, 0x11,
  0x02, 0x0e, 0x10, 0xff, 0x10, 0xcd, 0xf7, 0xf9, 0x8b, 0xf0, 0xef, 0x08,
  0x09, 0xea, 0xa1, 0xb8, 0xb6, 0xdf, 0xda, 0xbc, 0xe7, 0xce, 0xef, 0xd6,
  0xcb, 0xfa, 0x1f, 0xe5, 0xe4, 0x1b, 0x06, 0x10, 0xef, 0xdf, 0xf3, 0xd0,
  0xee, 0x3b, 0x7f, 0x4b, 0x4a, 0x02, 0x5e, 0x05, 0xf6, 0xe3, 0xba, 0xcf,
  0xf9, 0xfe, 0x0d, 0xeb, 0x1c, 0x0a, 0xcc, 0x2b, 0xe3, 0xdc, 0xd8, 0xfe,
  0x1e, 0x03, 0xf7, 0x27, 0x21, 0x32, 0x22, 0x2d, 0xd2, 0xd1, 0x05, 0xde,
  0xd2, 0x00, 0x1c, 0xe7, 0x21, 0x19, 0xed, 0x24, 0x30, 0xeb, 0xe9, 0xee,
  0xe8, 0x24, 0x15, 0x5e, 0x45, 0x07, 0x4a, 0x3d, 0xa6, 0xd9, 0x15, 0xe5,
  0x08, 0x26, 0xea, 0x90, 0x95, 0x11, 0xed, 0xc7, 0x17, 0xf3, 0xf7, 0xce,
  0xae, 0x9c, 0x81, 0xb3, 0xaf, 0xe0, 0xdb, 0xe0, 0x8c, 0xeb, 0x0a, 0xd0,
  0xe7, 0x0f, 0xec, 0x9c, 0x93, 0xfa, 0xfc, 0xe3, 0x16, 0x08, 0x15, 0xbc,
  0xdc, 0xac, 0xbc, 0xd5, 0x8b, 0xe2, 0xf5, 0xd9, 0xae, 0xc6, 0x18, 0xce,
  0xd5, 0x18, 0x03, 0xa4, 0x95, 0xc4, 0xf8, 0xc6, 0x11, 0x18, 0xd2, 0xd8,
  0xf1, 0x8e, 0xbe, 0xd4, 0xaa, 0xdf, 0xe9, 0xd3, 0xf0, 0x03, 0xbd, 0xd7,
  0xdd, 0xca, 0x1b, 0xd3, 0x2a, 0x26, 0x14, 0xf5, 0xe8, 0xf1, 0x08, 0xe2,
  0x33, 0x30, 0x39, 0x7f, 0x2d, 0x0b, 0xdc, 0xe5, 0xd2, 0xf0, 0xf9, 0xd6,
  0xcd, 0xc8, 0x08, 0xe2, 0xd1, 0xf1, 0x14, 0xd6, 0xe9, 0x18, 0xf6, 0xc7,
  0x30, 0xf7, 0x0e, 0x3c, 0x30, 0x31, 0x26, 0x3f, 0x06, 0xc9, 0xf3, 0xca,
  0xcb, 0xe4, 0xf2, 0xe2, 0x20, 0x12, 0x43, 0xeb, 0xe7, 0x0b, 0x12, 0xe1,
  0x3f, 0xf7, 0x18, 0x61, 0xe6, 0x0a, 0x09, 0x40, 0x16, 0x3b, 0x07, 0xf8,
  0xcc, 0xff, 0x24, 0x9c, 0x2d, 0xf0, 0xa7, 0x35, 0xc5, 0xa1, 0x47, 0xdc,
  0x7f, 0x1e, 0xe4, 0x33, 0xef, 0xe6, 0x00, 0x02, 0xdd, 0x16, 0xdb, 0xb3,
  0xeb, 0x26, 0xfe, 0xd4, 0x1b, 0x03, 0x85, 0xde, 0xdc, 0xbc, 0x14, 0xf7,
  0x31, 0x26, 0xdc, 0x2d, 0xac, 0xe8, 0x0a, 0x15, 0xf3, 0xd2, 0x39, 0xc3,
  0xd9, 0x60, 0x30, 0xad, 0x2f, 0xd1, 0xe2, 0xd2, 0xbf, 0x9a, 0x1e, 0x08,
  0x41, 0x3d, 0x14, 0x10, 0xf2, 0xbf, 0x66, 0x52, 0xff, 0x2e, 0xd8, 0x29,
  0x54, 0x01, 0xbf, 0x07, 0xf7, 0x01, 0xb7, 0x01, 0x19, 0xf5, 0x92, 0xb3,
  0x06, 0xea, 0x81, 0xd7, 0x00, 0x15, 0xa5, 0xeb, 0xe9, 0x36, 0x03, 0x44,
  0x45, 0x00, 0xac, 0x2a, 0xfd, 0xf4, 0xff, 0xf2, 0x0f, 0x02, 0xb1, 0xca,
  0x0c, 0x17, 0xe7, 0x10, 0x1a, 0x15, 0xcb, 0xea, 0xf8, 0x0f, 0x13, 0x21,
  0x1f, 0x23, 0xc5, 0xf7, 0xfd, 0xfc, 0xed, 0x08, 0x09, 0x05, 0xdf, 0xd1,
  0xef, 0x10, 0xd6, 0xeb, 0xff, 0xfc, 0xc0, 0xce, 0xc9, 0xa5, 0xc0, 0xbe,
  0x87, 0x07, 0x21, 0xf9, 0x16, 0xfb, 0xce, 0x48, 0x07, 0xdb, 0xe7, 0x2d,
  0xf8, 0x28, 0xeb, 0x2f, 0xdd, 0xbe, 0xfb, 0x1c, 0xdd, 0x9f, 0xc2, 0xe2,
  0x82, 0xef, 0x1c, 0xfb, 0xfc, 0xf6, 0xbf, 0x12, 0xed, 0xd0, 0xf8, 0xfc,
  0xf9, 0x38, 0x0e, 0x68, 0x0d, 0xce, 0xf5, 0x2e, 0xce, 0xb3, 0x06, 0xc3,
  0xa6, 0xef, 0x3f, 0xe3, 0x27, 0x12, 0xcc, 0x7f, 0x0f, 0xd0, 0xdb, 0x34,
  0xf7, 0x0b, 0x43, 0x6a, 0x20, 0xf5, 0x02, 0xff, 0xc2, 0x96, 0x96, 0xb3,
  0x82, 0x04, 0x2c, 0x10, 0xdf, 0x0e, 0xec, 0x66, 0xfe, 0xd1, 0xef, 0xea,
  0x34, 0xe2, 0x30, 0x6e, 0xcc, 0xf6, 0xee, 0x11, 0xf3, 0xa9, 0x01, 0xd0,
  0xc9, 0xee, 0x4d, 0xd8, 0x0b, 0x0c, 0x0a, 0xfa, 0x34, 0xf1, 0xe3, 0x2d,
  0xd7, 0x17, 0x02, 0xfc, 0x0d, 0xec, 0xe6, 0xe6, 0xfc, 0xcb, 0x18, 0xd0,
  0xa3, 0x03, 0x21, 0xfc, 0xe8, 0xfe, 0xea, 0x7f, 0xfc, 0xe0, 0xda, 0xff,
  0x3a, 0x12, 0x16, 0x2d, 0x29, 0xd7, 0xe4, 0x18, 0xcc, 0xd9, 0xe4, 0xf8,
  0xed, 0xf8, 0x39, 0xfa, 0x13, 0x0a, 0xd4, 0x22, 0x0e, 0xea, 0x06, 0xf2,
  0x0b, 0x37, 0x4f, 0x3f, 0xfd, 0xe7, 0x22, 0xff, 0xc6, 0xd7, 0x04, 0xc6,
  0xf9, 0x28, 0xf6, 0xf5, 0x06, 0xe4, 0xff, 0x01, 0xe9, 0xf9, 0xf0, 0x29,
  0xf5, 0xe9, 0x00, 0x49, 0x14, 0xe6, 0xf1, 0xfd, 0xf6, 0xd6, 0x01, 0xe3,
  0xcb, 0xfb, 0x01, 0xda, 0xe2, 0x05, 0xf9, 0xff, 0xe4, 0xe9, 0x18, 0x14,
  0xea, 0x3a, 0x0a, 0x7f, 0x0e, 0xc7, 0x13, 0x20, 0x04, 0xfa, 0xe0, 0xa2,
  0x10, 0x53, 0x1f, 0xf2, 0x30, 0xd7, 0xbf, 0xdd, 0x04, 0xda, 0x44, 0x2c,
  0x0f, 0xec, 0x1c, 0xd5, 0x07, 0x1e, 0x36, 0x33, 0xde, 0xea, 0xcb, 0xa1,
  0xf2, 0x00, 0x0c, 0xbf, 0x0c, 0xdb, 0x81, 0xde, 0xfe, 0xdf, 0x44, 0x16,
  0x1f, 0x02, 0xa4, 0xd4, 0x16, 0xe9, 0xe4, 0x3d, 0x01, 0x15, 0x3c, 0xde,
  0x10, 0x42, 0x18, 0xd1, 0x46, 0x0c, 0x19, 0x1c, 0xed, 0xc5, 0x41, 0x10,
  0x3c, 0x31, 0x65, 0x04, 0x29, 0xf2, 0x41, 0x52, 0x49, 0x39, 0xfe, 0x01,
  0xfe, 0xec, 0x3e, 0xfc, 0xe1, 0xd9, 0x1b, 0x1a, 0xea, 0x05, 0x25, 0xbe,
  0x16, 0xed, 0x26, 0xef, 0x22, 0x43, 0x4b, 0xab, 0x22, 0xf4, 0xdf, 0x03,
  0x13, 0xeb, 0xed, 0x1d, 0xbe, 0x04, 0xf7, 0x2a, 0xf2, 0xf9, 0x14, 0x0b,
  0xbe, 0x12, 0xe5, 0xdc, 0xe3, 0xfb, 0x4c, 0x04, 0x1d, 0x1f, 0x42, 0x10,
  0x07, 0xf6, 0x2b, 0x22, 0xcb, 0xef, 0x3c, 0x18, 0xfb, 0x21, 0xfc, 0xf1,
  0xbb, 0x01, 0x2a, 0xcb, 0xff, 0x07, 0x7f, 0xea, 0xa2, 0xf7, 0xff, 0xff,
  0x04, 0x00, 0x00, 0x00, 0x40, 0x00, 0x00, 0x00, 0x4e, 0x09, 0x00, 0x00,
  0x37, 0x08, 0x00, 0x00, 0x14, 0xff, 0xff, 0xff, 0x15, 0xfa, 0xff, 0xff,
  0xac, 0x10, 0x00, 0x00, 0x7b, 0x0d, 0x00, 0x00, 0xf7, 0xff, 0xff, 0xff,
  0xf0, 0x14, 0x00, 0x00, 0x06, 0x02, 0x00, 0x00, 0x6f, 0x05, 0x00, 0x00,
  0x0d, 0xfe, 0xff, 0xff, 0x07, 0x08, 0x00, 0x00, 0xd1, 0x01, 0x00, 0x00,
  0x65, 0x03, 0x00, 0x00, 0x57, 0xf6, 0xff, 0xff, 0xf6, 0xf4, 0xff, 0xff,
  0xee, 0xf7, 0xff, 0xff, 0x04, 0x00, 0x00, 0x00, 0x00, 0x06, 0x00, 0x00,
  0x35, 0x3c, 0xff, 0x0a, 0x28, 0xea, 0x0b, 0x00, 0x1b, 0x06, 0x14, 0xde,
  0xf4, 0xd1, 0x5a, 0x1a, 0x07, 0xdd, 0x20, 0x43, 0xee, 0xe9, 0xfd, 0x05,
  0x27, 0x41, 0xe3, 0x0f, 0xf0, 0xe2, 0x65, 0x60, 0xb8, 0xcc, 0x12, 0x47,
  0xce, 0x81, 0x23, 0xb1, 0x6b, 0x3f, 0x1a, 0x3c, 0x18, 0x50, 0x44, 0x68,
  0x10, 0x0b, 0xb0, 0x22, 0xf8, 0x22, 0x11, 0x18, 0x2b, 0x44, 0xcf, 0xfe,
  0xe6, 0xd4, 0x24, 0x25, 0x17, 0xa6, 0xdb, 0x21, 0xc8, 0x25, 0xea, 0x15,
  0x10, 0x65, 0x04, 0x25, 0x20, 0x29, 0x00, 0x1d, 0xd8, 0xdc, 0x29, 0x13,
  0xaa, 0xce, 0x53, 0xd0, 0x5c, 0x6f, 0xeb, 0x2b, 0x59, 0x22, 0x5a, 0x7b,
  0x20, 0x0d, 0xec, 0x0e, 0x23, 0x0f, 0x0b, 0xed, 0x04, 0x24, 0xdb, 0xed,
  0x0e, 0xd3, 0x0f, 0x15, 0x19, 0xf7, 0x34, 0xfd, 0xfe, 0xe3, 0x0a, 0x17,
  0xf4, 0x17, 0xfc, 0x17, 0x04, 0x0c, 0x42, 0x18, 0xb5, 0xd9, 0xea, 0x3f,
  0xbc, 0xcc, 0x28, 0xd5, 0x38, 0x1b, 0x0f, 0x2b, 0x36, 0x0d, 0x36, 0x6f,
  0x19, 0xec, 0xd2, 0x0a, 0xfd, 0x1a, 0x08, 0xf0, 0x10, 0x02, 0xcc, 0xe2,
  0xf6, 0xe2, 0x16, 0x15, 0x12, 0xc0, 0xfd, 0xed, 0x04, 0xe8, 0x15, 0x18,
  0x04, 0x3f, 0xe9, 0xf6, 0xf6, 0x09, 0x1a, 0x20, 0xdc, 0xbc, 0x11, 0x27,
  0xcb, 0xdc, 0x24, 0xc3, 0x2d, 0x56, 0xfa, 0x2d, 0x1f, 0x31, 0x1d, 0x7f,
  0x1a, 0x04, 0xd4, 0xd5, 0x49, 0xd3, 0xf3, 0x06, 0x14, 0x36, 0xfe, 0xfa,
  0xff, 0xb9, 0xe6, 0x15, 0xf5, 0xe3, 0x61, 0x3d, 0x0c, 0xe0, 0x0a, 0x0d,
  0xc5, 0x37, 0xd0, 0x12, 0xe9, 0xdc, 0x22, 0xf1, 0xaa, 0xf3, 0xdf, 0x5f,
  0xf3, 0x97, 0x1c, 0xad, 0xd9, 0x63, 0x0e, 0x1f, 0x1d, 0x01, 0x5c, 0x48,
  0xd6, 0xe6, 0xb5, 0x11, 0x47, 0x3b, 0x01, 0x20, 0x2e, 0x3c, 0xd0, 0xf6,
  0xdb, 0xd2, 0xca, 0x38, 0x11, 0xf0, 0xfb, 0xea, 0x1d, 0x13, 0x0d, 0xe9,
  0xee, 0x7f, 0xbd, 0xcf, 0x17, 0x07, 0x0a, 0x11, 0xd9, 0xe6, 0x32, 0xe5,
  0xbf, 0xe2, 0x49, 0xf9, 0x40, 0x4f, 0x1a, 0x24, 0x30, 0x0b, 0xe6, 0x7c,
  0xe8, 0x22, 0x42, 0xd8, 0xa8, 0x1f, 0x26, 0xa3, 0x2a, 0xf4, 0x4a, 0x4c,
  0x25, 0x1d, 0xec, 0xcf, 0xfd, 0x5e, 0x1a, 0xc9, 0x1e, 0x04, 0x04, 0x1b,
  0x14, 0xda, 0x19, 0xd5, 0x16, 0xf4, 0xc4, 0xa6, 0x33, 0x12, 0xf4, 0xbd,
  0x48, 0x20, 0xe1, 0x2e, 0xc8, 0xcf, 0x33, 0xb9, 0xcd, 0xe2, 0xe2, 0xbd,
  0xd7, 0x2d, 0x3e, 0xd9, 0x9b, 0xe8, 0xf6, 0xa3, 0xe9, 0xe4, 0x2d, 0x27,
  0x22, 0xfe, 0xd6, 0xe6, 0xff, 0x4d, 0x29, 0xa3, 0x22, 0xc9, 0x0b, 0x27,
  0xf3, 0xa3, 0x2c, 0xd2, 0xf9, 0xf4, 0xc3, 0xc2, 0x4b, 0x04, 0xfa, 0xa9,
  0x30, 0x31, 0xaf, 0x30, 0xb5, 0x14, 0xeb, 0xa9, 0x9b, 0x94, 0xb3, 0x81,
  0x21, 0x11, 0x07, 0x09, 0xf7, 0xfe, 0xf9, 0x10, 0x0f, 0x0f, 0xe3, 0xef,
  0xeb, 0x12, 0x1f, 0x16, 0x0c, 0xfe, 0x23, 0x26, 0xe5, 0x21, 0xf5, 0x0d,
  0xe9, 0x1d, 0xf3, 0xe8, 0x06, 0xe7, 0x33, 0xf8, 0xbf, 0x00, 0xfc, 0x2d,
  0xd7, 0xca, 0x1e, 0xdb, 0x11, 0x0d, 0xfe, 0x28, 0x1f, 0x0a, 0x22, 0x65,
  0xfa, 0xe7, 0xce, 0xfb, 0x25, 0xfd, 0xfd, 0x12, 0x18, 0x2b, 0x01, 0xf1,
  0xe5, 0xe9, 0x0e, 0xfc, 0x2d, 0xd8, 0x13, 0x0d, 0xe4, 0xf8, 0xfb, 0xf2,
  0x25, 0x53, 0xf5, 0xf0, 0x1e, 0x0b, 0x0b, 0x18, 0xd9, 0xfd, 0x19, 0x2f,
  0xed, 0xdd, 0x36, 0xee, 0x39, 0x30, 0xf9, 0x27, 0x14, 0xfe, 0x06, 0x7f,
  0xd5, 0xf3, 0x41, 0xe2, 0xb1, 0xdf, 0xe6, 0xb1, 0xf7, 0xf0, 0x52, 0x32,
  0x3e, 0x33, 0xec, 0xea, 0x1f, 0x5b, 0x22, 0xca, 0x07, 0xf8, 0xd4, 0x2f,
  0xf2, 0xd5, 0x34, 0xd7, 0xdd, 0xe5, 0xef, 0xf5, 0x17, 0x12, 0x1f, 0xdc,
  0x2f, 0x65, 0xb6, 0x47, 0xae, 0xe1, 0xfe, 0x97, 0xde, 0xb4, 0xca, 0xac,
  0xe4, 0x04, 0x2f, 0xdb, 0xaa, 0xd5, 0x29, 0xbb, 0xfe, 0xd0, 0x50, 0x52,
  0x3b, 0x24, 0xb7, 0x05, 0xf5, 0x3f, 0x15, 0xb1, 0x1a, 0x01, 0xfa, 0x10,
  0xf7, 0xbb, 0x29, 0xdb, 0xec, 0xcd, 0xaa, 0xce, 0x33, 0x03, 0xd8, 0xba,
  0x48, 0x5e, 0x8f, 0x21, 0x81, 0xda, 0x24, 0xa8, 0xc7, 0xbc, 0xa6, 0xc1,
  0x48, 0xa9, 0xb7, 0xb7, 0x43, 0xb0, 0x2f, 0xda, 0x22, 0xa2, 0xc0, 0x1d,
  0xe7, 0xd2, 0x84, 0xcd, 0x20, 0x07, 0xb1, 0x16, 0xdb, 0xe6, 0xc1, 0x9c,
  0x02, 0xd6, 0x03, 0x9f, 0x15, 0xfe, 0xb4, 0xfb, 0xd3, 0x97, 0xb8, 0x43,
  0xf3, 0xc1, 0xc1, 0x0e, 0x8c, 0xd5, 0x95, 0x9f, 0x59, 0xd2, 0xb7, 0xa4,
  0x46, 0x9c, 0xce, 0xcf, 0x2c, 0x22, 0x48, 0xd1, 0x89, 0xf5, 0x29, 0x08,
  0x2e, 0x97, 0xf3, 0x31, 0xef, 0xb7, 0xf3, 0xbe, 0xf8, 0xc6, 0x93, 0xfb,
  0xc8, 0xca, 0xe0, 0x42, 0xb0, 0x81, 0xd2, 0x1e, 0xec, 0x03, 0xd4, 0x88,
  0xbf, 0x9c, 0xfa, 0x2b, 0x23, 0xd7, 0x2e, 0xea, 0xed, 0x05, 0x8a, 0xd8,
  0xca, 0x31, 0x29, 0xac, 0xd1, 0xd2, 0xe3, 0xa5, 0x2d, 0xeb, 0xe6, 0x1b,
  0xd5, 0x01, 0x22, 0xb0, 0xdc, 0xfb, 0xce, 0xf5, 0xc7, 0xf6, 0xe4, 0xa0,
  0x10, 0xed, 0xfb, 0x17, 0xf2, 0xe8, 0x36, 0xe4, 0xe8, 0xa3, 0xe2, 0x25,
  0x32, 0xcc, 0x30, 0x1f, 0xff, 0x00, 0x1c, 0xfe, 0xf5, 0x81, 0xa5, 0xeb,
  0x1e, 0xa0, 0xc4, 0x99, 0xeb, 0xfa, 0x8d, 0xfa, 0x39, 0x17, 0x20, 0x8d,
  0x22, 0xfc, 0xba, 0x3b, 0xf0, 0xb0, 0x1c, 0x0b, 0x02, 0xa4, 0x01, 0x12,
  0x92, 0xca, 0xf1, 0x96, 0xe2, 0x97, 0xfc, 0xcf, 0xca, 0xc1, 0x02, 0xb7,
  0x0b, 0xce, 0xae, 0xa7, 0xbe, 0xb8, 0xa8, 0x24, 0x07, 0x99, 0xdc, 0xbf,
  0xf9, 0x0a, 0x1b, 0x02, 0x39, 0xf6, 0xe3, 0x16, 0x23, 0x21, 0xe0, 0xe1,
  0xdd, 0xce, 0x31, 0x41, 0x38, 0xd6, 0x5c, 0x13, 0xef, 0xf7, 0xeb, 0xe9,
  0xf5, 0x48, 0xd1, 0x16, 0x23, 0x06, 0x43, 0x17, 0xb8, 0xd1, 0xd4, 0x11,
  0xa3, 0xb7, 0x36, 0xc3, 0xe9, 0x35, 0x29, 0x3b, 0x32, 0xea, 0x6c, 0x54,
  0xe6, 0x09, 0xc3, 0xd5, 0x35, 0x17, 0x14, 0xe9, 0x3f, 0x14, 0x09, 0xf6,
  0xfb, 0xdb, 0x18, 0x1b, 0x59, 0xdd, 0x07, 0xd6, 0xff, 0xef, 0xf3, 0x0a,
  0x35, 0x47, 0x11, 0x15, 0xee, 0x31, 0xe6, 0x08, 0xa1, 0xb4, 0xf5, 0x32,
  0xd1, 0xa6, 0x02, 0xda, 0x54, 0x35, 0x12, 0x39, 0x0a, 0x46, 0xfc, 0x7f,
  0x12, 0xfd, 0xfa, 0x27, 0x04, 0xdf, 0xeb, 0xff, 0xf7, 0xf6, 0xec, 0xf0,
  0xeb, 0xdd, 0x40, 0x1c, 0x0a, 0xf6, 0x0e, 0xfd, 0xd6, 0xfb, 0x11, 0x04,
  0xe9, 0x01, 0xed, 0x16, 0x28, 0xfc, 0x0a, 0x09, 0xd5, 0xaa, 0x0d, 0x4e,
  0xe5, 0xc5, 0xf7, 0xdc, 0x2c, 0x45, 0xe0, 0x2f, 0x20, 0x29, 0x3f, 0x7f,
  0x01, 0xe3, 0xe2, 0xd3, 0x0b, 0xf6, 0x10, 0xe2, 0x09, 0x33, 0xdd, 0xd9,
  0x07, 0x0b, 0x0b, 0xfe, 0x1c, 0xf0, 0xe2, 0x06, 0xcc, 0x12, 0xe0, 0x17,
  0xf8, 0x6b, 0xf2, 0x01, 0x0c, 0xe3, 0x3d, 0x17, 0xd9, 0xf8, 0x08, 0xf7,
  0xb9, 0xaf, 0x28, 0xeb, 0x07, 0x45, 0x26, 0x1d, 0x31, 0x47, 0x2d, 0x7a,
  0x02, 0xfd, 0x45, 0xe7, 0xc6, 0x02, 0x03, 0xa0, 0x15, 0x01, 0x33, 0x34,
  0x36, 0x10, 0xcd, 0xf9, 0xed, 0x27, 0x02, 0xed, 0xfd, 0xd2, 0xe5, 0xfb,
  0xf7, 0xb8, 0x1e, 0xe2, 0xce, 0xf0, 0xba, 0xf3, 0x4a, 0xf8, 0x00, 0xab,
  0x4b, 0x36, 0x81, 0x54, 0x9c, 0xe7, 0xf3, 0xe3, 0xbb, 0xb6, 0xe2, 0x9e,
  0xbe, 0x09, 0x3d, 0xe6, 0xc7, 0xf6, 0x24, 0xb9, 0x09, 0x07, 0x1e, 0x19,
  0x3a, 0x11, 0xd6, 0xe9, 0x05, 0x49, 0x10, 0x14, 0xe5, 0xcd, 0xf0, 0xfc,
  0xcc, 0x9d, 0x1b, 0xfe, 0x17, 0xd4, 0xe5, 0xe7, 0x3c, 0x27, 0xfb, 0xaf,
  0x28, 0x53, 0xa7, 0x3c, 0xc2, 0xf2, 0xe6, 0xe5, 0xc0, 0xa1, 0xdd, 0xbf,
  0xf5, 0x0c, 0xfa, 0x22, 0xf5, 0xe6, 0x04, 0x17, 0x0c, 0x0f, 0xf5, 0xef,
  0x06, 0xff, 0x37, 0x02, 0x1b, 0xea, 0x10, 0x10, 0xde, 0xf9, 0xea, 0x1f,
  0xe5, 0xf6, 0x11, 0x13, 0x0b, 0x06, 0x24, 0x10, 0xd2, 0xcf, 0x1c, 0x57,
  0xdf, 0x98, 0x20, 0xd5, 0x09, 0x0b, 0xfa, 0x32, 0x12, 0x37, 0x26, 0x3c,
  0x35, 0xe8, 0xe5, 0xdf, 0x2a, 0x24, 0xed, 0x11, 0x02, 0x0e, 0xd9, 0x08,
  0xf5, 0x05, 0xfd, 0x32, 0x24, 0xf8, 0xe4, 0xe4, 0xeb, 0x1d, 0x27, 0xf5,
  0xfd, 0x63, 0xe1, 0x1e, 0x01, 0x1a, 0x0b, 0x1e, 0xcb, 0xc4, 0xfe, 0x15,
  0xbc, 0xda, 0x27, 0xea, 0x12, 0x4a, 0xee, 0xfe, 0x2e, 0x0f, 0x1f, 0x7f,
  0x1a, 0x10, 0x1a, 0xf2, 0x0f, 0xef, 0xe9, 0xd9, 0xe2, 0x17, 0xfd, 0x15,
  0xd5, 0x03, 0x1d, 0x3a, 0x21, 0xe4, 0x58, 0x46, 0x00, 0x03, 0x0f, 0x18,
  0xfb, 0x21, 0xe8, 0xe9, 0x03, 0xf9, 0x40, 0x20, 0xc4, 0xce, 0x00, 0x12,
  0xbc, 0x9b, 0x19, 0xd3, 0x2d, 0x4b, 0xe3, 0x40, 0x2d, 0x32, 0x4e, 0x7f,
  0x26, 0xc0, 0xd1, 0xdb, 0x21, 0x03, 0xec, 0x2b, 0xf6, 0x3a, 0xdb, 0xd7,
  0xe2, 0x0e, 0xdf, 0x15, 0x27, 0xba, 0x03, 0x19, 0x1f, 0x1c, 0xe2, 0xf5,
  0x3f, 0x2e, 0xfe, 0x0c, 0x03, 0x02, 0x2a, 0xfc, 0xc7, 0xb3, 0xef, 0x21,
  0xdc, 0xdb, 0x3a, 0xf1, 0x2d, 0x3a, 0x2b, 0x14, 0x3b, 0x43, 0x24, 0x52,
  0xfa, 0xe3, 0x43, 0xe7, 0x99, 0x00, 0xfa, 0xc8, 0x17, 0xf3, 0x34, 0x44,
  0x3f, 0x03, 0xc4, 0x0b, 0xff, 0x4a, 0xf0, 0xbe, 0x0e, 0xd4, 0xf1, 0x12,
  0xe8, 0xdb, 0x49, 0xf4, 0x01, 0xe9, 0xd4, 0x07, 0x49, 0x3b, 0x10, 0xa6,
  0x58, 0x3e, 0x81, 0x4b, 0x95, 0xe1, 0x10, 0xb6, 0xd1, 0xbf, 0xe6, 0xbc,
  0xac, 0xee, 0x40, 0x0b, 0xc6, 0x03, 0xff, 0xac, 0xdf, 0xe3, 0x2e, 0x47,
  0x1f, 0x12, 0xb4, 0x0a, 0xf3, 0x30, 0x09, 0xdd, 0x00, 0x0b, 0x10, 0xf7,
  0xf7, 0xcc, 0x34, 0xef, 0x04, 0xca, 0xb1, 0xea, 0x25, 0x08, 0xfc, 0xa1,
  0x41, 0x2f, 0xd2, 0x45, 0xa7, 0xe5, 0xfa, 0x93, 0x9d, 0xd0, 0xd6, 0xeb,
  0x08, 0x1c, 0xf8, 0x0d, 0x2a, 0x11, 0x0c, 0x2a, 0xff, 0xfa, 0xce, 0x0a,
  0x02, 0x02, 0x27, 0x30, 0x03, 0xc8, 0x2d, 0x1b, 0xf5, 0x29, 0x0d, 0x22,
  0xfa, 0x3e, 0xf1, 0x17, 0x09, 0xf6, 0x13, 0xf8, 0xc1, 0xd2, 0x01, 0x4e,
  0xcc, 0xa2, 0x4d, 0xc9, 0x52, 0x35, 0x08, 0x62, 0x20, 0x28, 0x47, 0x36,
  0x36, 0xd7, 0xe0, 0x17, 0xfb, 0x2f, 0xd9, 0xf9, 0x2e, 0x14, 0xc7, 0xf7,
  0xcd, 0xd3, 0xeb, 0x27, 0x47, 0xe6, 0xdb, 0xf9, 0xee, 0x26, 0xfc, 0x1c,
  0x1d, 0x32, 0xfd, 0x17, 0x09, 0x0f, 0x21, 0x2f, 0xc5, 0xe0, 0xe4, 0x36,
  0xce, 0xb0, 0x41, 0xc5, 0x0f, 0x4e, 0x26, 0xfb, 0x30, 0xfc, 0xf3, 0x7f,
  0x08, 0x3b, 0x01, 0x0c, 0x2b, 0x0d, 0xf5, 0x00, 0x13, 0x08, 0xe1, 0xe2,
  0xe9, 0xe7, 0x21, 0xf4, 0x00, 0xe2, 0x50, 0x15, 0xc2, 0x04, 0xd7, 0x2a,
  0xe6, 0x01, 0xd9, 0xfc, 0xf0, 0x20, 0x56, 0x1d, 0xdc, 0xe1, 0xd3, 0x45,
  0xad, 0x88, 0xf7, 0xd5, 0x23, 0x19, 0xe2, 0x51, 0x0f, 0x2f, 0x41, 0x7f,
  0x16, 0xd8, 0xc5, 0xf3, 0x23, 0xe6, 0xdb, 0x08, 0xfc, 0x2a, 0xfe, 0xf2,
  0x1d, 0xfd, 0xe9, 0x3e, 0xfe, 0xb3, 0x1d, 0xee, 0xd1, 0xde, 0x0f, 0x25,
  0x01, 0x38, 0xfe, 0xe0, 0x25, 0x2b, 0xfc, 0x45, 0xc2, 0xbd, 0x35, 0x23,
  0x9a, 0xc0, 0x3c, 0xdb, 0x4e, 0x21, 0xf5, 0x0f, 0x3b, 0x19, 0x45, 0x5f,
  0xfa, 0xfd, 0xff, 0xff, 0x04, 0x00, 0x00, 0x00, 0x40, 0x00, 0x00, 0x00,
  0xd2, 0xfe, 0xff, 0xff, 0xfa, 0xff, 0xff, 0xff, 0xd9, 0x08, 0x00, 0x00,
  0x19, 0x0e, 0x00, 0x00, 0x4a, 0x02, 0x00, 0x00, 0x3c, 0x0e, 0x00, 0x00,
  0xdc, 0xf4, 0xff, 0xff, 0x8c, 0xf1, 0xff, 0xff, 0x78, 0x0c, 0x00, 0x00,
  0xa0, 0x03, 0x00, 0x00, 0xb1, 0x0c, 0x00, 0x00, 0x10, 0x03, 0x00, 0x00,
  0x4e, 0x07, 0x00, 0x00, 0x9a, 0x0d, 0x00, 0x00, 0x5c, 0x05, 0x00, 0x00,
  0x95, 0x0a, 0x00, 0x00, 0x46, 0xfe, 0xff, 0xff, 0x04, 0x00, 0x00, 0x00,
  0x10, 0x00, 0x00, 0x00, 0xe6, 0xe9, 0xcd, 0x62, 0xd7, 0x68, 0x1f, 0x36,
  0xb8, 0xd8, 0x76, 0xd2, 0xd3, 0x7f, 0xe8, 0xbe, 0x62, 0xfe, 0xff, 0xff,
  0x04, 0x00, 0x00, 0x00, 0x04, 0x00, 0x00, 0x00, 0xdb, 0x0c, 0x00, 0x00,
  0x72, 0xfe, 0xff, 0xff, 0x04, 0x00, 0x00, 0x00, 0x04, 0x00, 0x00, 0x00,
  0x60, 0x00, 0x00, 0x00, 0x82, 0xfe, 0xff, 0xff, 0x04, 0x00, 0x00, 0x00,
  0x04, 0x00, 0x00, 0x00, 0x01, 0x00, 0x00, 0x00, 0x92, 0xfe, 0xff, 0xff,
  0x04, 0x00, 0x00, 0x00, 0x04, 0x00, 0x00, 0x00, 0x00, 0x00, 0x00, 0x00,
  0x20, 0xed, 0xff, 0xff, 0x24, 0xed, 0xff, 0xff, 0x0f, 0x00, 0x00, 0x00,
  0x4d, 0x4c, 0x49, 0x52, 0x20, 0x43, 0x6f, 0x6e, 0x76, 0x65, 0x72, 0x74,
  0x65, 0x64, 0x2e, 0x00, 0x01, 0x00, 0x00, 0x00, 0x14, 0x00, 0x00, 0x00,
  0x00, 0x00, 0x0e, 0x00, 0x18, 0x00, 0x14, 0x00, 0x10, 0x00, 0x0c, 0x00,
  0x08, 0x00, 0x04, 0x00, 0x0e, 0x00, 0x00, 0x00, 0x14, 0x00, 0x00, 0x00,
  0x1c, 0x00, 0x00, 0x00, 0x10, 0x03, 0x00, 0x00, 0x14, 0x03, 0x00, 0x00,
  0x18, 0x03, 0x00, 0x00, 0x04, 0x00, 0x00, 0x00, 0x6d, 0x61, 0x69, 0x6e,
  0x00, 0x00, 0x00, 0x00, 0x0b, 0x00, 0x00, 0x00, 0xa8, 0x02, 0x00, 0x00,
  0x44, 0x02, 0x00, 0x00, 0xf0, 0x01, 0x00, 0x00, 0xac, 0x01, 0x00, 0x00,
  0x60, 0x01, 0x00, 0x00, 0x10, 0x01, 0x00, 0x00, 0xd0, 0x00, 0x00, 0x00,
  0xa8, 0x00, 0x00, 0x00, 0x60, 0x00, 0x00, 0x00, 0x28, 0x00, 0x00, 0x00,
  0x04, 0x00, 0x00, 0x00, 0x72, 0xff, 0xff, 0xff, 0x0c, 0x00, 0x00, 0x00,
  0x10, 0x00, 0x00, 0x00, 0x07, 0x00, 0x00, 0x00, 0x01, 0x00, 0x00, 0x00,
  0x16, 0x00, 0x00, 0x00, 0x01, 0x00, 0x00, 0x00, 0x15, 0x00, 0x00, 0x00,
  0xa2, 0xfe, 0xff, 0xff, 0x14, 0x00, 0x00, 0x00, 0x00, 0x00, 0x00, 0x08,
  0x10, 0x00, 0x00, 0x00, 0x14, 0x00, 0x00, 0x00, 0x06, 0x00, 0x00, 0x00,
  0xe0, 0xed, 0xff, 0xff, 0x01, 0x00, 0x00, 0x00, 0x15, 0x00, 0x00, 0x00,
  0x03, 0x00, 0x00, 0x00, 0x14, 0x00, 0x00, 0x00, 0x05, 0x00, 0x00, 0x00,
  0x04, 0x00, 0x00, 0x00, 0xd6, 0xfe, 0xff, 0xff, 0x14, 0x00, 0x00, 0x00,
  0x00, 0x00, 0x00, 0x08, 0x14, 0x00, 0x00, 0x00, 0x18, 0x00, 0x00, 0x00,
  0x06, 0x00, 0x00, 0x00, 0x0e, 0xff, 0xff, 0xff, 0x00, 0x00, 0x00, 0x01,
  0x01, 0x00, 0x00, 0x00, 0x14, 0x00, 0x00, 0x00, 0x03, 0x00, 0x00, 0x00,
  0x13, 0x00, 0x00, 0x00, 0x07, 0x00, 0x00, 0x00, 0x06, 0x00, 0x00, 0x00,
  0x00, 0x00, 0x0a, 0x00, 0x10, 0x00, 0x0c, 0x00, 0x08, 0x00, 0x04, 0x00,
  0x0a, 0x00, 0x00, 0x00, 0x0c, 0x00, 0x00, 0x00, 0x10, 0x00, 0x00, 0x00,
  0x05, 0x00, 0x00, 0x00, 0x01, 0x00, 0x00, 0x00, 0x13, 0x00, 0x00, 0x00,
  0x02, 0x00, 0x00, 0x00, 0x0f, 0x00, 0x00, 0x00, 0x12, 0x00, 0x00, 0x00,
  0xae, 0xfe, 0xff, 0xff, 0x1c, 0x00, 0x00, 0x00, 0x00, 0x00, 0x00, 0x3b,
  0x1c, 0x00, 0x00, 0x00, 0x20, 0x00, 0x00, 0x00, 0x04, 0x00, 0x00, 0x00,
  0x00, 0x00, 0x06, 0x00, 0x08, 0x00, 0x04, 0x00, 0x06, 0x00, 0x00, 0x00,
  0x02, 0x00, 0x00, 0x00, 0x01, 0x00, 0x00, 0x00, 0x12, 0x00, 0x00, 0x00,
  0x02, 0x00, 0x00, 0x00, 0x11, 0x00, 0x00, 0x00, 0x03, 0x00, 0x00, 0x00,
  0xea, 0xfe, 0xff, 0xff, 0x24, 0x00, 0x00, 0x00, 0x00, 0x00, 0x00, 0x20,
  0x24, 0x00, 0x00, 0x00, 0x28, 0x00, 0x00, 0x00, 0x03, 0x00, 0x00, 0x00,
  0x00, 0x00, 0x0e, 0x00, 0x08, 0x00, 0x00, 0x00, 0x00, 0x00, 0x00, 0x00,
  0x00, 0x00, 0x04, 0x00, 0x0e, 0x00, 0x00, 0x00, 0x01, 0x00, 0x00, 0x00,
  0x01, 0x00, 0x00, 0x00, 0x11, 0x00, 0x00, 0x00, 0x04, 0x00, 0x00, 0x00,
  0x10, 0x00, 0x00, 0x00, 0x01, 0x00, 0x00, 0x00, 0x02, 0x00, 0x00, 0x00,
  0x02, 0x00, 0x00, 0x00, 0x36, 0xff, 0xff, 0xff, 0x1c, 0x00, 0x00, 0x00,
  0x00, 0x00, 0x00, 0x37, 0x1c, 0x00, 0x00, 0x00, 0x20, 0x00, 0x00, 0x00,
  0x02, 0x00, 0x00, 0x00, 0x00, 0x00, 0x06, 0x00, 0x08, 0x00, 0x07, 0x00,
  0x06, 0x00, 0x00, 0x00, 0x00, 0x00, 0x00, 0x02, 0x01, 0x00, 0x00, 0x00,
  0x10, 0x00, 0x00, 0x00, 0x01, 0x00, 0x00, 0x00, 0x0f, 0x00, 0x00, 0x00,
  0x00, 0x00, 0x0e, 0x00, 0x18, 0x00, 0x14, 0x00, 0x10, 0x00, 0x0c, 0x00,
  0x0b, 0x00, 0x04, 0x00, 0x0e, 0x00, 0x00, 0x00, 0x14, 0x00, 0x00, 0x00,
  0x00, 0x00, 0x00, 0x05, 0x24, 0x00, 0x00, 0x00, 0x28, 0x00, 0x00, 0x00,
  0x01, 0x00, 0x00, 0x00, 0x6e, 0xff, 0xff, 0xff, 0x02, 0x00, 0x00, 0x00,
  0x02, 0x00, 0x00, 0x00, 0x02, 0x00, 0x00, 0x00, 0x02, 0x00, 0x00, 0x00,
  0x00, 0x00, 0x00, 0x01, 0x01, 0x00, 0x00, 0x00, 0x0f, 0x00, 0x00, 0x00,
  0x01, 0x00, 0x00, 0x00, 0x0e, 0x00, 0x00, 0x00, 0x5e, 0xff, 0xff, 0xff,
  0x10, 0x00, 0x00, 0x00, 0x00, 0x00, 0x00, 0x01, 0x1c, 0x00, 0x00, 0x00,
  0x20, 0x00, 0x00, 0x00, 0x50, 0xff, 0xff, 0xff, 0x00, 0x00, 0x00, 0x01,
  0x01, 0x00, 0x00, 0x00, 0x01, 0x00, 0x00, 0x00, 0x00, 0x00, 0x00, 0x01,
  0x01, 0x00, 0x00, 0x00, 0x0e, 0x00, 0x00, 0x00, 0x03, 0x00, 0x00, 0x00,
  0x0d, 0x00, 0x00, 0x00, 0x09, 0x00, 0x00, 0x00, 0x08, 0x00, 0x00, 0x00,
  0x00, 0x00, 0x0e, 0x00, 0x1a, 0x00, 0x14, 0x00, 0x10, 0x00, 0x0c, 0x00,
  0x0b, 0x00, 0x04, 0x00, 0x0e, 0x00, 0x00, 0x00, 0x24, 0x00, 0x00, 0x00,
  0x00, 0x00, 0x00, 0x05, 0x34, 0x00, 0x00, 0x00, 0x38, 0x00, 0x00, 0x00,
  0x01, 0x00, 0x00, 0x00, 0x00, 0x00, 0x0e, 0x00, 0x18, 0x00, 0x17, 0x00,
  0x10, 0x00, 0x0c, 0x00, 0x08, 0x00, 0x04, 0x00, 0x0e, 0x00, 0x00, 0x00,
  0x02, 0x00, 0x00, 0x00, 0x02, 0x00, 0x00, 0x00, 0x02, 0x00, 0x00, 0x00,
  0x02, 0x00, 0x00, 0x00, 0x00, 0x00, 0x00, 0x01, 0x01, 0x00, 0x00, 0x00,
  0x0d, 0x00, 0x00, 0x00, 0x01, 0x00, 0x00, 0x00, 0x0c, 0x00, 0x00, 0x00,
  0x00, 0x00, 0x0e, 0x00, 0x14, 0x00, 0x00, 0x00, 0x10, 0x00, 0x0c, 0x00,
  0x0b, 0x00, 0x04, 0x00, 0x0e, 0x00, 0x00, 0x00, 0x1c, 0x00, 0x00, 0x00,
  0x00, 0x00, 0x00, 0x01, 0x28, 0x00, 0x00, 0x00, 0x2c, 0x00, 0x00, 0x00,
  0x0c, 0x00, 0x14, 0x00, 0x13, 0x00, 0x0c, 0x00, 0x08, 0x00, 0x07, 0x00,
  0x0c, 0x00, 0x00, 0x00, 0x00, 0x00, 0x00, 0x01, 0x01, 0x00, 0x00, 0x00,
  0x01, 0x00, 0x00, 0x00, 0x00, 0x00, 0x00, 0x01, 0x01, 0x00, 0x00, 0x00,
  0x0c, 0x00, 0x00, 0x00, 0x03, 0x00, 0x00, 0x00, 0x00, 0x00, 0x00, 0x00,
  0x0b, 0x00, 0x00, 0x00, 0x0a, 0x00, 0x00, 0x00, 0x01, 0x00, 0x00, 0x00,
  0x16, 0x00, 0x00, 0x00, 0x01, 0x00, 0x00, 0x00, 0x00, 0x00, 0x00, 0x00,
  0x17, 0x00, 0x00, 0x00, 0xd8, 0x0f, 0x00, 0x00, 0x5c, 0x0f, 0x00, 0x00,
  0x04, 0x0f, 0x00, 0x00, 0xac, 0x0e, 0x00, 0x00, 0x3c, 0x0e, 0x00, 0x00,
  0xc8, 0x0d, 0x00, 0x00, 0x84, 0x0c, 0x00, 0x00, 0x58, 0x0b, 0x00, 0x00,
  0xcc, 0x09, 0x00, 0x00, 0x98, 0x08, 0x00, 0x00, 0x6c, 0x07, 0x00, 0x00,
  0x98, 0x06, 0x00, 0x00, 0x9c, 0x05, 0x00, 0x00, 0x08, 0x05, 0x00, 0x00,
  0x0c, 0x04, 0x00, 0x00, 0x78, 0x03, 0x00, 0x00, 0x24, 0x03, 0x00, 0x00,
  0xcc, 0x02, 0x00, 0x00, 0x70, 0x02, 0x00, 0x00, 0xe8, 0x01, 0x00, 0x00,
  0x24, 0x01, 0x00, 0x00, 0x80, 0x00, 0x00, 0x00, 0x04, 0x00, 0x00, 0x00,
  0x9a, 0xf0, 0xff, 0xff, 0x00, 0x00, 0x00, 0x01, 0x18, 0x00, 0x00, 0x00,
  0x20, 0x00, 0x00, 0x00, 0x3c, 0x00, 0x00, 0x00, 0x17, 0x00, 0x00, 0x00,
  0x00, 0x00, 0x00, 0x09, 0x50, 0x00, 0x00, 0x00, 0x02, 0x00, 0x00, 0x00,
  0xff, 0xff, 0xff, 0xff, 0x01, 0x00, 0x00, 0x00, 0x7c, 0xf0, 0xff, 0xff,
  0x08, 0x00, 0x00, 0x00, 0x10, 0x00, 0x00, 0x00, 0x01, 0x00, 0x00, 0x00,
  0x80, 0xff, 0xff, 0xff, 0xff, 0xff, 0xff, 0xff, 0x01, 0x00, 0x00, 0x00,
  0x00, 0x00, 0x80, 0x3b, 0x1b, 0x00, 0x00, 0x00, 0x53, 0x74, 0x61, 0x74,
  0x65, 0x66, 0x75, 0x6c, 0x50, 0x61, 0x72, 0x74, 0x69, 0x74, 0x69, 0x6f,
  0x6e, 0x65, 0x64, 0x43, 0x61, 0x6c, 0x6c, 0x5f, 0x31, 0x3a, 0x30, 0x00,
  0x02, 0x00, 0x00, 0x00, 0x01, 0x00, 0x00, 0x00, 0x01, 0x00, 0x00, 0x00,
  0x12, 0xf1, 0xff, 0xff, 0x00, 0x00, 0x00, 0x01, 0x18, 0x00, 0x00, 0x00,
  0x20, 0x00, 0x00, 0x00, 0x40, 0x00, 0x00, 0x00, 0x16, 0x00, 0x00, 0x00,
  0x00, 0x00, 0x00, 0x09, 0x78, 0x00, 0x00, 0x00, 0x02, 0x00, 0x00, 0x00,
  0xff, 0xff, 0xff, 0xff, 0x01, 0x00, 0x00, 0x00, 0xf4, 0xf0, 0xff, 0xff,
  0x08, 0x00, 0x00, 0x00, 0x14, 0x00, 0x00, 0x00, 0x01, 0x00, 0x00, 0x00,
  0x01, 0x00, 0x00, 0x00, 0x00, 0x00, 0x00, 0x00, 0x00, 0x00, 0x00, 0x00,
  0x01, 0x00, 0x00, 0x00, 0xdc, 0xc5, 0xf6, 0x3d, 0x3e, 0x00, 0x00, 0x00,
  0x64, 0x72, 0x6f, 0x6e, 0x65, 0x5f, 0x64, 0x65, 0x74, 0x65, 0x63, 0x74,
  0x6f, 0x72, 0x5f, 0x31, 0x2f, 0x6f, 0x75, 0x74, 0x70, 0x75, 0x74, 0x5f,
  0x31, 0x2f, 0x4d, 0x61, 0x74, 0x4d, 0x75, 0x6c, 0x3b, 0x64, 0x72, 0x6f,
  0x6e, 0x65, 0x5f, 0x64, 0x65, 0x74, 0x65, 0x63, 0x74, 0x6f, 0x72, 0x5f,
  0x31, 0x2f, 0x6f, 0x75, 0x74, 0x70, 0x75, 0x74, 0x5f, 0x31, 0x2f, 0x41,
  0x64, 0x64, 0x00, 0x00, 0x02, 0x00, 0x00, 0x00, 0x01, 0x00, 0x00, 0x00,
  0x01, 0x00, 0x00, 0x00, 0xb2, 0xf1, 0xff, 0xff, 0x00, 0x00, 0x00, 0x01,
  0x18, 0x00, 0x00, 0x00, 0x20, 0x00, 0x00, 0x00, 0x3c, 0x00, 0x00, 0x00,
  0x15, 0x00, 0x00, 0x00, 0x00, 0x00, 0x00, 0x09, 0x98, 0x00, 0x00, 0x00,
  0x02, 0x00, 0x00, 0x00, 0xff, 0xff, 0xff, 0xff, 0x10, 0x00, 0x00, 0x00,
  0x94, 0xf1, 0xff, 0xff, 0x08, 0x00, 0x00, 0x00, 0x10, 0x00, 0x00, 0x00,
  0x01, 0x00, 0x00, 0x00, 0x80, 0xff, 0xff, 0xff, 0xff, 0xff, 0xff, 0xff,
  0x01, 0x00, 0x00, 0x00, 0xea, 0x63, 0xc6, 0x3c, 0x61, 0x00, 0x00, 0x00,
  0x64, 0x72, 0x6f, 0x6e, 0x65, 0x5f, 0x64, 0x65, 0x74, 0x65, 0x63, 0x74,
  0x6f, 0x72, 0x5f, 0x31, 0x2f, 0x64, 0x65, 0x6e, 0x73, 0x65, 0x31, 0x5f,
  0x31, 0x2f, 0x4d, 0x61, 0x74, 0x4d, 0x75, 0x6c, 0x3b, 0x64, 0x72, 0x6f,
  0x6e, 0x65, 0x5f, 0x64, 0x65, 0x74, 0x65, 0x63, 0x74, 0x6f, 0x72, 0x5f,
  0x31, 0x2f, 0x64, 0x65, 0x6e, 0x73, 0x65, 0x31, 0x5f, 0x31, 0x2f, 0x52,
  0x65, 0x6c, 0x75, 0x3b, 0x64, 0x72, 0x6f, 0x6e, 0x65, 0x5f, 0x64, 0x65,
  0x74, 0x65, 0x63, 0x74, 0x6f, 0x72, 0x5f, 0x31, 0x2f, 0x64, 0x65, 0x6e,
  0x73, 0x65, 0x31, 0x5f, 0x31, 0x2f, 0x42, 0x69, 0x61, 0x73, 0x41, 0x64,
  0x64, 0x00, 0x00, 0x00, 0x02, 0x00, 0x00, 0x00, 0x01, 0x00, 0x00, 0x00,
  0x10, 0x00, 0x00, 0x00, 0x72, 0xf2, 0xff, 0xff, 0x00, 0x00, 0x00, 0x01,
  0x18, 0x00, 0x00, 0x00, 0x20, 0x00, 0x00, 0x00, 0x40, 0x00, 0x00, 0x00,
  0x14, 0x00, 0x00, 0x00, 0x00, 0x00, 0x00, 0x09, 0x5c, 0x00, 0x00, 0x00,
  0x02, 0x00, 0x00, 0x00, 0xff, 0xff, 0xff, 0xff, 0x60, 0x00, 0x00, 0x00,
  0x54, 0xf2, 0xff, 0xff, 0x08, 0x00, 0x00, 0x00, 0x14, 0x00, 0x00, 0x00,
  0x01, 0x00, 0x00, 0x00, 0x80, 0xff, 0xff, 0xff, 0xff, 0xff, 0xff, 0xff,
  0x00, 0x00, 0x00, 0x00, 0x01, 0x00, 0x00, 0x00, 0xc5, 0x06, 0x08, 0x3c,
  0x22, 0x00, 0x00, 0x00, 0x64, 0x72, 0x6f, 0x6e, 0x65, 0x5f, 0x64, 0x65,
  0x74, 0x65, 0x63, 0x74, 0x6f, 0x72, 0x5f, 0x31, 0x2f, 0x66, 0x6c, 0x61,
  0x74, 0x74, 0x65, 0x6e, 0x5f, 0x31, 0x2f, 0x52, 0x65, 0x73, 0x68, 0x61,
  0x70, 0x65, 0x00, 0x00, 0x02, 0x00, 0x00, 0x00, 0x01, 0x00, 0x00, 0x00,
  0x60, 0x00, 0x00, 0x00, 0x6e, 0xf3, 0xff, 0xff, 0x00, 0x00, 0x00, 0x01,
  0x14, 0x00, 0x00, 0x00, 0x14, 0x00, 0x00, 0x00, 0x13, 0x00, 0x00, 0x00,
  0x00, 0x00, 0x00, 0x02, 0x38, 0x00, 0x00, 0x00, 0x58, 0xf3, 0xff, 0xff,
  0x28, 0x00, 0x00, 0x00, 0x64, 0x72, 0x6f, 0x6e, 0x65, 0x5f, 0x64, 0x65,
  0x74, 0x65, 0x63, 0x74, 0x6f, 0x72, 0x5f, 0x31, 0x2f, 0x66, 0x6c, 0x61,
  0x74, 0x74, 0x65, 0x6e, 0x5f, 0x31, 0x2f, 0x52, 0x65, 0x73, 0x68, 0x61,
  0x70, 0x65, 0x2f, 0x73, 0x68, 0x61, 0x70, 0x65, 0x00, 0x00, 0x00, 0x00,
  0x01, 0x00, 0x00, 0x00, 0x02, 0x00, 0x00, 0x00, 0xc6, 0xf3, 0xff, 0xff,
  0x00, 0x00, 0x00, 0x01, 0x14, 0x00, 0x00, 0x00, 0x14, 0x00, 0x00, 0x00,
  0x12, 0x00, 0x00, 0x00, 0x00, 0x00, 0x00, 0x02, 0x38, 0x00, 0x00, 0x00,
  0xb0, 0xf3, 0xff, 0xff, 0x28, 0x00, 0x00, 0x00, 0x64, 0x72, 0x6f, 0x6e,
  0x65, 0x5f, 0x64, 0x65, 0x74, 0x65, 0x63, 0x74, 0x6f, 0x72, 0x5f, 0x31,
  0x2f, 0x66, 0x6c, 0x61, 0x74, 0x74, 0x65, 0x6e, 0x5f, 0x31, 0x2f, 0x73,
  0x74, 0x72, 0x69, 0x64, 0x65, 0x64, 0x5f, 0x73, 0x6c, 0x69, 0x63, 0x65,
  0x00, 0x00, 0x00, 0x00, 0x00, 0x00, 0x00, 0x00, 0x1a, 0xf4, 0xff, 0xff,
  0x00, 0x00, 0x00, 0x01, 0x14, 0x00, 0x00, 0x00, 0x14, 0x00, 0x00, 0x00,
  0x11, 0x00, 0x00, 0x00, 0x00, 0x00, 0x00, 0x02, 0x30, 0x00, 0x00, 0x00,
  0x04, 0xf4, 0xff, 0xff, 0x20, 0x00, 0x00, 0x00, 0x64, 0x72, 0x6f, 0x6e,
  0x65, 0x5f, 0x64, 0x65, 0x74, 0x65, 0x63, 0x74, 0x6f, 0x72, 0x5f, 0x31,
  0x2f, 0x66, 0x6c, 0x61, 0x74, 0x74, 0x65, 0x6e, 0x5f, 0x31, 0x2f, 0x53,
  0x68, 0x61, 0x70, 0x65, 0x00, 0x00, 0x00, 0x00, 0x01, 0x00, 0x00, 0x00,
  0x04, 0x00, 0x00, 0x00, 0xf2, 0xf3, 0xff, 0xff, 0x00, 0x00, 0x00, 0x01,
  0x18, 0x00, 0x00, 0x00, 0x28, 0x00, 0x00, 0x00, 0x44, 0x00, 0x00, 0x00,
  0x10, 0x00, 0x00, 0x00, 0x00, 0x00, 0x00, 0x09, 0x60, 0x00, 0x00, 0x00,
  0x04, 0x00, 0x00, 0x00, 0xff, 0xff, 0xff, 0xff, 0x02, 0x00, 0x00, 0x00,
  0x03, 0x00, 0x00, 0x00, 0x10, 0x00, 0x00, 0x00, 0xdc, 0xf3, 0xff, 0xff,
  0x08, 0x00, 0x00, 0x00, 0x10, 0x00, 0x00, 0x00, 0x01, 0x00, 0x00, 0x00,
  0x80, 0xff, 0xff, 0xff, 0xff, 0xff, 0xff, 0xff, 0x01, 0x00, 0x00, 0x00,
  0xc5, 0x06, 0x08, 0x3c, 0x22, 0x00, 0x00, 0x00, 0x64, 0x72, 0x6f, 0x6e,
  0x65, 0x5f, 0x64, 0x65, 0x74, 0x65, 0x63, 0x74, 0x6f, 0x72, 0x5f, 0x31,
  0x2f, 0x70, 0x6f, 0x6f, 0x6c, 0x32, 0x5f, 0x31, 0x2f, 0x4d, 0x61, 0x78,
  0x50, 0x6f, 0x6f, 0x6c, 0x32, 0x64, 0x00, 0x00, 0x04, 0x00, 0x00, 0x00,
  0x01, 0x00, 0x00, 0x00, 0x02, 0x00, 0x00, 0x00, 0x03, 0x00, 0x00, 0x00,
  0x10, 0x00, 0x00, 0x00, 0x82, 0xf4, 0xff, 0xff, 0x00, 0x00, 0x00, 0x01,
  0x18, 0x00, 0x00, 0x00, 0x28, 0x00, 0x00, 0x00, 0x48, 0x00, 0x00, 0x00,
  0x0f, 0x00, 0x00, 0x00, 0x00, 0x00, 0x00, 0x09, 0xc8, 0x00, 0x00, 0x00,
  0x04, 0x00, 0x00, 0x00, 0xff, 0xff, 0xff, 0xff, 0x05, 0x00, 0x00, 0x00,
  0x07, 0x00, 0x00, 0x00, 0x10, 0x00, 0x00, 0x00, 0x6c, 0xf4, 0xff, 0xff,
  0x08, 0x00, 0x00, 0x00, 0x14, 0x00, 0x00, 0x00, 0x01, 0x00, 0x00, 0x00,
  0x80, 0xff, 0xff, 0xff, 0xff, 0xff, 0xff, 0xff, 0x00, 0x00, 0x00, 0x00,
  0x01, 0x00, 0x00, 0x00, 0xc5, 0x06, 0x08, 0x3c, 0x85, 0x00, 0x00, 0x00,
  0x64, 0x72, 0x6f, 0x6e, 0x65, 0x5f, 0x64, 0x65, 0x74, 0x65, 0x63, 0x74,
  0x6f, 0x72, 0x5f, 0x31, 0x2f, 0x63, 0x6f, 0x6e, 0x76, 0x32, 0x5f, 0x31,
  0x2f, 0x52, 0x65, 0x6c, 0x75, 0x3b, 0x64, 0x72, 0x6f, 0x6e, 0x65, 0x5f,
  0x64, 0x65, 0x74, 0x65, 0x63, 0x74, 0x6f, 0x72, 0x5f, 0x31, 0x2f, 0x63,
  0x6f, 0x6e, 0x76, 0x32, 0x5f, 0x31, 0x2f, 0x42, 0x69, 0x61, 0x73, 0x41,
  0x64, 0x64, 0x3b, 0x64, 0x72, 0x6f, 0x6e, 0x65, 0x5f, 0x64, 0x65, 0x74,
  0x65, 0x63, 0x74, 0x6f, 0x72, 0x5f, 0x31, 0x2f, 0x63, 0x6f, 0x6e, 0x76,
  0x32, 0x5f, 0x31, 0x2f, 0x63, 0x6f, 0x6e, 0x76, 0x6f, 0x6c, 0x75, 0x74,
  0x69, 0x6f, 0x6e, 0x3b, 0x64, 0x72, 0x6f, 0x6e, 0x65, 0x5f, 0x64, 0x65,
  0x74, 0x65, 0x63, 0x74, 0x6f, 0x72, 0x5f, 0x31, 0x2f, 0x63, 0x6f, 0x6e,
  0x76, 0x32, 0x5f, 0x31, 0x2f, 0x53, 0x71, 0x75, 0x65, 0x65, 0x7a, 0x65,
  0x31, 0x00, 0x00, 0x00, 0x04, 0x00, 0x00, 0x00, 0x01, 0x00, 0x00, 0x00,
  0x05, 0x00, 0x00, 0x00, 0x07, 0x00, 0x00, 0x00, 0x10, 0x00, 0x00, 0x00,
  0x7a, 0xf5, 0xff, 0xff, 0x00, 0x00, 0x00, 0x01, 0x18, 0x00, 0x00, 0x00,
  0x28, 0x00, 0x00, 0x00, 0x44, 0x00, 0x00, 0x00, 0x0e, 0x00, 0x00, 0x00,
  0x00, 0x00, 0x00, 0x09, 0x60, 0x00, 0x00, 0x00, 0x04, 0x00, 0x00, 0x00,
  0xff, 0xff, 0xff, 0xff, 0x07, 0x00, 0x00, 0x00, 0x09, 0x00, 0x00, 0x00,
  0x08, 0x00, 0x00, 0x00, 0x64, 0xf5, 0xff, 0xff, 0x08, 0x00, 0x00, 0x00,
  0x10, 0x00, 0x00, 0x00, 0x01, 0x00, 0x00, 0x00, 0x80, 0xff, 0xff, 0xff,
  0xff, 0xff, 0xff, 0xff, 0x01, 0x00, 0x00, 0x00, 0xe0, 0x60, 0x0f, 0x3c,
  0x22, 0x00, 0x00, 0x00, 0x64, 0x72, 0x6f, 0x6e, 0x65, 0x5f, 0x64, 0x65,
  0x74, 0x65, 0x63, 0x74, 0x6f, 0x72, 0x5f, 0x31, 0x2f, 0x70, 0x6f, 0x6f,
  0x6c, 0x31, 0x5f, 0x31, 0x2f, 0x4d, 0x61, 0x78, 0x50, 0x6f, 0x6f, 0x6c,
  0x32, 0x64, 0x00, 0x00, 0x04, 0x00, 0x00, 0x00, 0x01, 0x00, 0x00, 0x00,
  0x07, 0x00, 0x00, 0x00, 0x09, 0x00, 0x00, 0x00, 0x08, 0x00, 0x00, 0x00,
  0x0a, 0xf6, 0xff, 0xff, 0x00, 0x00, 0x00, 0x01, 0x18, 0x00, 0x00, 0x00,
  0x28, 0x00, 0x00, 0x00, 0x48, 0x00, 0x00, 0x00, 0x0d, 0x00, 0x00, 0x00,
  0x00, 0x00, 0x00, 0x09, 0xc8, 0x00, 0x00, 0x00, 0x04, 0x00, 0x00, 0x00,
  0xff, 0xff, 0xff, 0xff, 0x0e, 0x00, 0x00, 0x00, 0x12, 0x00, 0x00, 0x00,
  0x08, 0x00, 0x00, 0x00, 0xf4, 0xf5, 0xff, 0xff, 0x08, 0x00, 0x00, 0x00,
  0x14, 0x00, 0x00, 0x00, 0x01, 0x00, 0x00, 0x00, 0x80, 0xff, 0xff, 0xff,
  0xff, 0xff, 0xff, 0xff, 0x00, 0x00, 0x00, 0x00, 0x01, 0x00, 0x00, 0x00,
  0xe0, 0x60, 0x0f, 0x3c, 0x85, 0x00, 0x00, 0x00, 0x64, 0x72, 0x6f, 0x6e,
  0x65, 0x5f, 0x64, 0x65, 0x74, 0x65, 0x63, 0x74, 0x6f, 0x72, 0x5f, 0x31,
  0x2f, 0x63, 0x6f, 0x6e, 0x76, 0x31, 0x5f, 0x31, 0x2f, 0x52, 0x65, 0x6c,
  0x75, 0x3b, 0x64, 0x72, 0x6f, 0x6e, 0x65, 0x5f, 0x64, 0x65, 0x74, 0x65,
  0x63, 0x74, 0x6f, 0x72, 0x5f, 0x31, 0x2f, 0x63, 0x6f, 0x6e, 0x76, 0x31,
  0x5f, 0x31, 0x2f, 0x42, 0x69, 0x61, 0x73, 0x41, 0x64, 0x64, 0x3b, 0x64,
  0x72, 0x6f, 0x6e, 0x65, 0x5f, 0x64, 0x65, 0x74, 0x65, 0x63, 0x74, 0x6f,
  0x72, 0x5f, 0x31, 0x2f, 0x63, 0x6f, 0x6e, 0x76, 0x31, 0x5f, 0x31, 0x2f,
  0x63, 0x6f, 0x6e, 0x76, 0x6f, 0x6c, 0x75, 0x74, 0x69, 0x6f, 0x6e, 0x3b,
  0x64, 0x72, 0x6f, 0x6e, 0x65, 0x5f, 0x64, 0x65, 0x74, 0x65, 0x63, 0x74,
  0x6f, 0x72, 0x5f, 0x31, 0x2f, 0x63, 0x6f, 0x6e, 0x76, 0x31, 0x5f, 0x31,
  0x2f, 0x53, 0x71, 0x75, 0x65, 0x65, 0x7a, 0x65, 0x31, 0x00, 0x00, 0x00,
  0x04, 0x00, 0x00, 0x00, 0x01, 0x00, 0x00, 0x00, 0x0e, 0x00, 0x00, 0x00,
  0x12, 0x00, 0x00, 0x00, 0x08, 0x00, 0x00, 0x00, 0x7a, 0xf7, 0xff, 0xff,
  0x00, 0x00, 0x00, 0x01, 0x14, 0x00, 0x00, 0x00, 0x84, 0x00, 0x00, 0x00,
  0x0c, 0x00, 0x00, 0x00, 0x00, 0x00, 0x00, 0x09, 0xa4, 0x00, 0x00, 0x00,
  0xd4, 0xf6, 0xff, 0xff, 0x08, 0x00, 0x00, 0x00, 0x48, 0x00, 0x00, 0x00,
  0x08, 0x00, 0x00, 0x00, 0x00, 0x00, 0x00, 0x00, 0x00, 0x00, 0x00, 0x00,
  0x00, 0x00, 0x00, 0x00, 0x00, 0x00, 0x00, 0x00, 0x00, 0x00, 0x00, 0x00,
  0x00, 0x00, 0x00, 0x00, 0x00, 0x00, 0x00, 0x00, 0x00, 0x00, 0x00, 0x00,
  0x00, 0x00, 0x00, 0x00, 0x00, 0x00, 0x00, 0x00, 0x00, 0x00, 0x00, 0x00,
  0x00, 0x00, 0x00, 0x00, 0x00, 0x00, 0x00, 0x00, 0x00, 0x00, 0x00, 0x00,
  0x00, 0x00, 0x00, 0x00, 0x00, 0x00, 0x00, 0x00, 0x08, 0x00, 0x00, 0x00,
  0xdd, 0x95, 0x1c, 0x3b, 0x34, 0xc2, 0x41, 0x3b, 0xcd, 0x6b, 0x47, 0x3b,
  0x0a, 0x1c, 0x51, 0x3b, 0x28, 0x29, 0x61, 0x3b, 0x47, 0x8d, 0x4c, 0x3b,
  0x15, 0x28, 0x18, 0x3b, 0x00, 0x8c, 0x4a, 0x3b, 0x24, 0x00, 0x00, 0x00,
  0x64, 0x72, 0x6f, 0x6e, 0x65, 0x5f, 0x64, 0x65, 0x74, 0x65, 0x63, 0x74,
  0x6f, 0x72, 0x5f, 0x31, 0x2f, 0x63, 0x6f, 0x6e, 0x76, 0x31, 0x5f, 0x31,
  0x2f, 0x63, 0x6f, 0x6e, 0x76, 0x6f, 0x6c, 0x75, 0x74, 0x69, 0x6f, 0x6e,
  0x00, 0x00, 0x00, 0x00, 0x04, 0x00, 0x00, 0x00, 0x08, 0x00, 0x00, 0x00,
  0x03, 0x00, 0x00, 0x00, 0x03, 0x00, 0x00, 0x00, 0x01, 0x00, 0x00, 0x00,
  0x4a, 0xf8, 0xff, 0xff, 0x00, 0x00, 0x00, 0x01, 0x14, 0x00, 0x00, 0x00,
  0x88, 0x00, 0x00, 0x00, 0x0b, 0x00, 0x00, 0x00, 0x00, 0x00, 0x00, 0x02,
  0x08, 0x01, 0x00, 0x00, 0xa4, 0xf7, 0xff, 0xff, 0x08, 0x00, 0x00, 0x00,
  0x4c, 0x00, 0x00, 0x00, 0x08, 0x00, 0x00, 0x00, 0x00, 0x00, 0x00, 0x00,
  0x00, 0x00, 0x00, 0x00, 0x00, 0x00, 0x00, 0x00, 0x00, 0x00, 0x00, 0x00,
  0x00, 0x00, 0x00, 0x00, 0x00, 0x00, 0x00, 0x00, 0x00, 0x00, 0x00, 0x00,
  0x00, 0x00, 0x00, 0x00, 0x00, 0x00, 0x00, 0x00, 0x00, 0x00, 0x00, 0x00,
  0x00, 0x00, 0x00, 0x00, 0x00, 0x00, 0x00, 0x00, 0x00, 0x00, 0x00, 0x00,
  0x00, 0x00, 0x00, 0x00, 0x00, 0x00, 0x00, 0x00, 0x00, 0x00, 0x00, 0x00,
  0x00, 0x00, 0x00, 0x00, 0x08, 0x00, 0x00, 0x00, 0xe7, 0xf1, 0x21, 0x38,
  0xf6, 0x63, 0x48, 0x38, 0x2d, 0x3f, 0x4e, 0x38, 0x4e, 0x44, 0x58, 0x38,
  0x12, 0xde, 0x68, 0x38, 0x9c, 0x8d, 0x53, 0x38, 0x50, 0x5d, 0x1d, 0x38,
  0xc4, 0x7a, 0x51, 0x38, 0x84, 0x00, 0x00, 0x00, 0x64, 0x72, 0x6f, 0x6e,
  0x65, 0x5f, 0x64, 0x65, 0x74, 0x65, 0x63, 0x74, 0x6f, 0x72, 0x5f, 0x31,
  0x2f, 0x63, 0x6f, 0x6e, 0x76, 0x31, 0x5f, 0x31, 0x2f, 0x52, 0x65, 0x6c,
  0x75, 0x3b, 0x64, 0x72, 0x6f, 0x6e, 0x65, 0x5f, 0x64, 0x65, 0x74, 0x65,
  0x63, 0x74, 0x6f, 0x72, 0x5f, 0x31, 0x2f, 0x63, 0x6f, 0x6e, 0x76, 0x31,
  0x5f, 0x31, 0x2f, 0x42, 0x69, 0x61, 0x73, 0x41, 0x64, 0x64, 0x3b, 0x64,
  0x72, 0x6f, 0x6e, 0x65, 0x5f, 0x64, 0x65, 0x74, 0x65, 0x63, 0x74, 0x6f,
  0x72, 0x5f, 0x31, 0x2f, 0x63, 0x6f, 0x6e, 0x76, 0x31, 0x5f, 0x31, 0x2f,
  0x63, 0x6f, 0x6e, 0x76, 0x6f, 0x6c, 0x75, 0x74, 0x69, 0x6f, 0x6e, 0x3b,
  0x64, 0x72, 0x6f, 0x6e, 0x65, 0x5f, 0x64, 0x65, 0x74, 0x65, 0x63, 0x74,
  0x6f, 0x72, 0x5f, 0x31, 0x2f, 0x63, 0x6f, 0x6e, 0x76, 0x31, 0x5f, 0x31,
  0x2f, 0x53, 0x71, 0x75, 0x65, 0x65, 0x7a, 0x65, 0x00, 0x00, 0x00, 0x00,
  0x01, 0x00, 0x00, 0x00, 0x08, 0x00, 0x00, 0x00, 0x72, 0xf9, 0xff, 0xff,
  0x00, 0x00, 0x00, 0x01, 0x14, 0x00, 0x00, 0x00, 0xe4, 0x00, 0x00, 0x00,
  0x0a, 0x00, 0x00, 0x00, 0x00, 0x00, 0x00, 0x09, 0x04, 0x01, 0x00, 0x00,
  0xcc, 0xf8, 0xff, 0xff, 0x08, 0x00, 0x00, 0x00, 0x88, 0x00, 0x00, 0x00,
  0x10, 0x00, 0x00, 0x00, 0x00, 0x00, 0x00, 0x00, 0x00, 0x00, 0x00, 0x00,
  0x00, 0x00, 0x00, 0x00, 0x00, 0x00, 0x00, 0x00, 0x00, 0x00, 0x00, 0x00,
  0x00, 0x00, 0x00, 0x00, 0x00, 0x00, 0x00, 0x00, 0x00, 0x00, 0x00, 0x00,
  0x00, 0x00, 0x00, 0x00, 0x00, 0x00, 0x00, 0x00, 0x00, 0x00, 0x00, 0x00,
  0x00, 0x00, 0x00, 0x00, 0x00, 0x00, 0x00, 0x00, 0x00, 0x00, 0x00, 0x00,
  0x00, 0x00, 0x00, 0x00, 0x00, 0x00, 0x00, 0x00, 0x00, 0x00, 0x00, 0x00,
  0x00, 0x00, 0x00, 0x00, 0x00, 0x00, 0x00, 0x00, 0x00, 0x00, 0x00, 0x00,
  0x00, 0x00, 0x00, 0x00, 0x00, 0x00, 0x00, 0x00, 0x00, 0x00, 0x00, 0x00,
  0x00, 0x00, 0x00, 0x00, 0x00, 0x00, 0x00, 0x00, 0x00, 0x00, 0x00, 0x00,
  0x00, 0x00, 0x00, 0x00, 0x00, 0x00, 0x00, 0x00, 0x00, 0x00, 0x00, 0x00,
  0x00, 0x00, 0x00, 0x00, 0x00, 0x00, 0x00, 0x00, 0x00, 0x00, 0x00, 0x00,
  0x10, 0x00, 0x00, 0x00, 0x8d, 0x99, 0xb2, 0x3b, 0xaa, 0x34, 0x87, 0x3b,
  0x3e, 0x3c, 0x75, 0x3b, 0xc1, 0xeb, 0x57, 0x3b, 0x58, 0x32, 0xbb, 0x3b,
  0x7b, 0x00, 0xc7, 0x3b, 0x83, 0x8f, 0x8c, 0x3b, 0x69, 0xa1, 0xac, 0x3b,
  0xbb, 0x0f, 0x83, 0x3b, 0x29, 0xb0, 0x47, 0x3b, 0x1e, 0x7b, 0x8c, 0x3b,
  0xcd, 0xee, 0x71, 0x3b, 0x25, 0xd6, 0x6f, 0x3b, 0x8e, 0xd2, 0x95, 0x3b,
  0x07, 0x59, 0x82, 0x3b, 0xf1, 0xae, 0x74, 0x3b, 0x24, 0x00, 0x00, 0x00,
  0x64, 0x72, 0x6f, 0x6e, 0x65, 0x5f, 0x64, 0x65, 0x74, 0x65, 0x63, 0x74,
  0x6f, 0x72, 0x5f, 0x31, 0x2f, 0x63, 0x6f, 0x6e, 0x76, 0x32, 0x5f, 0x31,
  0x2f, 0x63, 0x6f, 0x6e, 0x76, 0x6f, 0x6c, 0x75, 0x74, 0x69, 0x6f, 0x6e,
  0x00, 0x00, 0x00, 0x00, 0x04, 0x00, 0x00, 0x00, 0x10, 0x00, 0x00, 0x00,
  0x03, 0x00, 0x00, 0x00, 0x03, 0x00, 0x00, 0x00, 0x08, 0x00, 0x00, 0x00,
  0xa2, 0xfa, 0xff, 0xff, 0x00, 0x00, 0x00, 0x01, 0x14, 0x00, 0x00, 0x00,
  0xe8, 0x00, 0x00, 0x00, 0x09, 0x00, 0x00, 0x00, 0x00, 0x00, 0x00, 0x02,
  0x68, 0x01, 0x00, 0x00, 0xfc, 0xf9, 0xff, 0xff, 0x08, 0x00, 0x00, 0x00,
  0x8c, 0x00, 0x00, 0x00, 0x10, 0x00, 0x00, 0x00, 0x00, 0x00, 0x00, 0x00,
  0x00, 0x00, 0x00, 0x00, 0x00, 0x00, 0x00, 0x00, 0x00, 0x00, 0x00, 0x00,
  0x00, 0x00, 0x00, 0x00, 0x00, 0x00, 0x00, 0x00, 0x00, 0x00, 0x00, 0x00,
  0x00, 0x00, 0x00, 0x00, 0x00, 0x00, 0x00, 0x00, 0x00, 0x00, 0x00, 0x00,
  0x00, 0x00, 0x00, 0x00, 0x00, 0x00, 0x00, 0x00, 0x00, 0x00, 0x00, 0x00,
  0x00, 0x00, 0x00, 0x00, 0x00, 0x00, 0x00, 0x00, 0x00, 0x00, 0x00, 0x00,
  0x00, 0x00, 0x00, 0x00, 0x00, 0x00, 0x00, 0x00, 0x00, 0x00, 0x00, 0x00,
  0x00, 0x00, 0x00, 0x00, 0x00, 0x00, 0x00, 0x00, 0x00, 0x00, 0x00, 0x00,
  0x00, 0x00, 0x00, 0x00, 0x00, 0x00, 0x00, 0x00, 0x00, 0x00, 0x00, 0x00,
  0x00, 0x00, 0x00, 0x00, 0x00, 0x00, 0x00, 0x00, 0x00, 0x00, 0x00, 0x00,
  0x00, 0x00, 0x00, 0x00, 0x00, 0x00, 0x00, 0x00, 0x00, 0x00, 0x00, 0x00,
  0x00, 0x00, 0x00, 0x00, 0x00, 0x00, 0x00, 0x00, 0x10, 0x00, 0x00, 0x00,
  0xb7, 0x0e, 0x48, 0x38, 0x2a, 0x73, 0x17, 0x38, 0x74, 0x59, 0x09, 0x38,
  0xcc, 0xdc, 0xf1, 0x37, 0xec, 0xaf, 0x51, 0x38, 0x26, 0xe9, 0x5e, 0x38,
  0xb6, 0x72, 0x1d, 0x38, 0xfa, 0x5e, 0x41, 0x38, 0xc4, 0xce, 0x12, 0x38,
  0xef, 0xad, 0xdf, 0x37, 0xde, 0x5b, 0x1d, 0x38, 0xf2, 0x7f, 0x07, 0x38,
  0x61, 0x53, 0x06, 0x38, 0x9f, 0xd2, 0x27, 0x38, 0x1d, 0x02, 0x12, 0x38,
  0x50, 0x0a, 0x09, 0x38, 0x84, 0x00, 0x00, 0x00, 0x64, 0x72, 0x6f, 0x6e,
  0x65, 0x5f, 0x64, 0x65, 0x74, 0x65, 0x63, 0x74, 0x6f, 0x72, 0x5f, 0x31,
  0x2f, 0x63, 0x6f, 0x6e, 0x76, 0x32, 0x5f, 0x31, 0x2f, 0x52, 0x65, 0x6c,
  0x75, 0x3b, 0x64, 0x72, 0x6f, 0x6e, 0x65, 0x5f, 0x64, 0x65, 0x74, 0x65,
  0x63, 0x74, 0x6f, 0x72, 0x5f, 0x31, 0x2f, 0x63, 0x6f, 0x6e, 0x76, 0x32,
  0x5f, 0x31, 0x2f, 0x42, 0x69, 0x61, 0x73, 0x41, 0x64, 0x64, 0x3b, 0x64,
  0x72, 0x6f, 0x6e, 0x65, 0x5f, 0x64, 0x65, 0x74, 0x65, 0x63, 0x74, 0x6f,
  0x72, 0x5f, 0x31, 0x2f, 0x63, 0x6f, 0x6e, 0x76, 0x32, 0x5f, 0x31, 0x2f,
  0x63, 0x6f, 0x6e, 0x76, 0x6f, 0x6c, 0x75, 0x74, 0x69, 0x6f, 0x6e, 0x3b,
  0x64, 0x72, 0x6f, 0x6e, 0x65, 0x5f, 0x64, 0x65, 0x74, 0x65, 0x63, 0x74,
  0x6f, 0x72, 0x5f, 0x31, 0x2f, 0x63, 0x6f, 0x6e, 0x76, 0x32, 0x5f, 0x31,
  0x2f, 0x53, 0x71, 0x75, 0x65, 0x65, 0x7a, 0x65, 0x00, 0x00, 0x00, 0x00,
  0x01, 0x00, 0x00, 0x00, 0x10, 0x00, 0x00, 0x00, 0x2a, 0xfc, 0xff, 0xff,
  0x00, 0x00, 0x00, 0x01, 0x14, 0x00, 0x00, 0x00, 0xe8, 0x00, 0x00, 0x00,
  0x08, 0x00, 0x00, 0x00, 0x00, 0x00, 0x00, 0x09, 0x04, 0x01, 0x00, 0x00,
  0x84, 0xfb, 0xff, 0xff, 0x08, 0x00, 0x00, 0x00, 0x8c, 0x00, 0x00, 0x00,
  0x10, 0x00, 0x00, 0x00, 0x00, 0x00, 0x00, 0x00, 0x00, 0x00, 0x00, 0x00,
  0x00, 0x00, 0x00, 0x00, 0x00, 0x00, 0x00, 0x00, 0x00, 0x00, 0x00, 0x00,
  0x00, 0x00, 0x00, 0x00, 0x00, 0x00, 0x00, 0x00, 0x00, 0x00, 0x00, 0x00,
  0x00, 0x00, 0x00, 0x00, 0x00, 0x00, 0x00, 0x00, 0x00, 0x00, 0x00, 0x00,
  0x00, 0x00, 0x00, 0x00, 0x00, 0x00, 0x00, 0x00, 0x00, 0x00, 0x00, 0x00,
  0x00, 0x00, 0x00, 0x00, 0x00, 0x00, 0x00, 0x00, 0x00, 0x00, 0x00, 0x00,
  0x00, 0x00, 0x00, 0x00, 0x00, 0x00, 0x00, 0x00, 0x00, 0x00, 0x00, 0x00,
  0x00, 0x00, 0x00, 0x00, 0x00, 0x00, 0x00, 0x00, 0x00, 0x00, 0x00, 0x00,
  0x00, 0x00, 0x00, 0x00, 0x00, 0x00, 0x00, 0x00, 0x00, 0x00, 0x00, 0x00,
  0x00, 0x00, 0x00, 0x00, 0x00, 0x00, 0x00, 0x00, 0x00, 0x00, 0x00, 0x00,
  0x00, 0x00, 0x00, 0x00, 0x00, 0x00, 0x00, 0x00, 0x00, 0x00, 0x00, 0x00,
  0x00, 0x00, 0x00, 0x00, 0x10, 0x00, 0x00, 0x00, 0xcc, 0x21, 0xa5, 0x3b,
  0xa8, 0x93, 0xd9, 0x3b, 0x3c, 0xc0, 0x6f, 0x3b, 0x18, 0x0d, 0xb6, 0x3b,
  0xdb, 0x39, 0xd5, 0x3b, 0x51, 0x04, 0xa1, 0x3b, 0x81, 0x0d, 0x0a, 0x3b,
  0xf4, 0x90, 0x1f, 0x3b, 0xd9, 0x0e, 0x87, 0x3b, 0xde, 0x9a, 0xc1, 0x3b,
  0xa6, 0x57, 0xbb, 0x3b, 0xa6, 0x95, 0xc3, 0x3b, 0x8a, 0xf7, 0x9e, 0x3b,
  0x2f, 0x18, 0xa4, 0x3b, 0xba, 0x7c, 0xc4, 0x3b, 0x76, 0x90, 0x8d, 0x3b,
  0x20, 0x00, 0x00, 0x00, 0x64, 0x72, 0x6f, 0x6e, 0x65, 0x5f, 0x64, 0x65,
  0x74, 0x65, 0x63, 0x74, 0x6f, 0x72, 0x5f, 0x31, 0x2f, 0x64, 0x65, 0x6e,
  0x73, 0x65, 0x31, 0x5f, 0x31, 0x2f, 0x4d, 0x61, 0x74, 0x4d, 0x75, 0x6c,
  0x00, 0x00, 0x00, 0x00, 0x02, 0x00, 0x00, 0x00, 0x10, 0x00, 0x00, 0x00,
  0x60, 0x00, 0x00, 0x00, 0x52, 0xfd, 0xff, 0xff, 0x00, 0x00, 0x00, 0x01,
  0x14, 0x00, 0x00, 0x00, 0xe4, 0x00, 0x00, 0x00, 0x07, 0x00, 0x00, 0x00,
  0x00, 0x00, 0x00, 0x02, 0x20, 0x01, 0x00, 0x00, 0xac, 0xfc, 0xff, 0xff,
  0x08, 0x00, 0x00, 0x00, 0x88, 0x00, 0x00, 0x00, 0x10, 0x00, 0x00, 0x00,
  0x00, 0x00, 0x00, 0x00, 0x00, 0x00, 0x00, 0x00, 0x00, 0x00, 0x00, 0x00,
  0x00, 0x00, 0x00, 0x00, 0x00, 0x00, 0x00, 0x00, 0x00, 0x00, 0x00, 0x00,
  0x00, 0x00, 0x00, 0x00, 0x00, 0x00, 0x00, 0x00, 0x00, 0x00, 0x00, 0x00,
  0x00, 0x00, 0x00, 0x00, 0x00, 0x00, 0x00, 0x00, 0x00, 0x00, 0x00, 0x00,
  0x00, 0x00, 0x00, 0x00, 0x00, 0x00, 0x00, 0x00, 0x00, 0x00, 0x00, 0x00,
  0x00, 0x00, 0x00, 0x00, 0x00, 0x00, 0x00, 0x00, 0x00, 0x00, 0x00, 0x00,
  0x00, 0x00, 0x00, 0x00, 0x00, 0x00, 0x00, 0x00, 0x00, 0x00, 0x00, 0x00,
  0x00, 0x00, 0x00, 0x00, 0x00, 0x00, 0x00, 0x00, 0x00, 0x00, 0x00, 0x00,
  0x00, 0x00, 0x00, 0x00, 0x00, 0x00, 0x00, 0x00, 0x00, 0x00, 0x00, 0x00,
  0x00, 0x00, 0x00, 0x00, 0x00, 0x00, 0x00, 0x00, 0x00, 0x00, 0x00, 0x00,
  0x00, 0x00, 0x00, 0x00, 0x00, 0x00, 0x00, 0x00, 0x10, 0x00, 0x00, 0x00,
  0xa4, 0x7c, 0x2f, 0x38, 0x64, 0x38, 0x67, 0x38, 0xee, 0xc8, 0xfe, 0x37,
  0x8a, 0x77, 0x41, 0x38, 0xc0, 0x98, 0x62, 0x38, 0x1a, 0x1d, 0x2b, 0x38,
  0xa6, 0xb5, 0x92, 0x37, 0x74, 0x92, 0xa9, 0x37, 0xeb, 0x86, 0x0f, 0x38,
  0xc9, 0xbe, 0x4d, 0x38, 0x09, 0x17, 0x47, 0x38, 0x58, 0xd9, 0x4f, 0x38,
  0x6b, 0xef, 0x28, 0x38, 0x60, 0x62, 0x2e, 0x38, 0xea, 0xce, 0x50, 0x38,
  0xfa, 0x70, 0x16, 0x38, 0x40, 0x00, 0x00, 0x00, 0x64, 0x72, 0x6f, 0x6e,
  0x65, 0x5f, 0x64, 0x65, 0x74, 0x65, 0x63, 0x74, 0x6f, 0x72, 0x5f, 0x31,
  0x2f, 0x64, 0x65, 0x6e, 0x73, 0x65, 0x31, 0x5f, 0x31, 0x2f, 0x52, 0x65,
  0x6c, 0x75, 0x3b, 0x64, 0x72, 0x6f, 0x6e, 0x65, 0x5f, 0x64, 0x65, 0x74,
  0x65, 0x63, 0x74, 0x6f, 0x72, 0x5f, 0x31, 0x2f, 0x64, 0x65, 0x6e, 0x73,
  0x65, 0x31, 0x5f, 0x31, 0x2f, 0x42, 0x69, 0x61, 0x73, 0x41, 0x64, 0x64,
  0x00, 0x00, 0x00, 0x00, 0x01, 0x00, 0x00, 0x00, 0x10, 0x00, 0x00, 0x00,
  0x92, 0xfe, 0xff, 0xff, 0x00, 0x00, 0x00, 0x01, 0x14, 0x00, 0x00, 0x00,
  0x30, 0x00, 0x00, 0x00, 0x06, 0x00, 0x00, 0x00, 0x00, 0x00, 0x00, 0x09,
  0x4c, 0x00, 0x00, 0x00, 0xec, 0xfd, 0xff, 0xff, 0x08, 0x00, 0x00, 0x00,
  0x10, 0x00, 0x00, 0x00, 0x01, 0x00, 0x00, 0x00, 0x00, 0x00, 0x00, 0x00,
  0x00, 0x00, 0x00, 0x00, 0x01, 0x00, 0x00, 0x00, 0xf6, 0xc8, 0x1d, 0x3c,
  0x20, 0x00, 0x00, 0x00, 0x64, 0x72, 0x6f, 0x6e, 0x65, 0x5f, 0x64, 0x65,
  0x74, 0x65, 0x63, 0x74, 0x6f, 0x72, 0x5f, 0x31, 0x2f, 0x6f, 0x75, 0x74,
  0x70, 0x75, 0x74, 0x5f, 0x31, 0x2f, 0x4d, 0x61, 0x74, 0x4d, 0x75, 0x6c,
  0x00, 0x00, 0x00, 0x00, 0x02, 0x00, 0x00, 0x00, 0x01, 0x00, 0x00, 0x00,
  0x10, 0x00, 0x00, 0x00, 0x02, 0xff, 0xff, 0xff, 0x00, 0x00, 0x00, 0x01,
  0x14, 0x00, 0x00, 0x00, 0x34, 0x00, 0x00, 0x00, 0x05, 0x00, 0x00, 0x00,
  0x00, 0x00, 0x00, 0x02, 0x4c, 0x00, 0x00, 0x00, 0x5c, 0xfe, 0xff, 0xff,
  0x08, 0x00, 0x00, 0x00, 0x14, 0x00, 0x00, 0x00, 0x01, 0x00, 0x00, 0x00,
  0x00, 0x00, 0x00, 0x00, 0x00, 0x00, 0x00, 0x00, 0x00, 0x00, 0x00, 0x00,
  0x01, 0x00, 0x00, 0x00, 0x06, 0x8e, 0x74, 0x39, 0x1d, 0x00, 0x00, 0x00,
  0x64, 0x72, 0x6f, 0x6e, 0x65, 0x5f, 0x64, 0x65, 0x74, 0x65, 0x63, 0x74,
  0x6f, 0x72, 0x5f, 0x31, 0x2f, 0x6f, 0x75, 0x74, 0x70, 0x75, 0x74, 0x5f,
  0x31, 0x2f, 0x41, 0x64, 0x64, 0x00, 0x00, 0x00, 0x01, 0x00, 0x00, 0x00,
  0x01, 0x00, 0x00, 0x00, 0x6e, 0xff, 0xff, 0xff, 0x00, 0x00, 0x00, 0x01,
  0x14, 0x00, 0x00, 0x00, 0x14, 0x00, 0x00, 0x00, 0x04, 0x00, 0x00, 0x00,
  0x00, 0x00, 0x00, 0x02, 0x38, 0x00, 0x00, 0x00, 0x58, 0xff, 0xff, 0xff,
  0x2a, 0x00, 0x00, 0x00, 0x64, 0x72, 0x6f, 0x6e, 0x65, 0x5f, 0x64, 0x65,
  0x74, 0x65, 0x63, 0x74, 0x6f, 0x72, 0x5f, 0x31, 0x2f, 0x66, 0x6c, 0x61,
  0x74, 0x74, 0x65, 0x6e, 0x5f, 0x31, 0x2f, 0x52, 0x65, 0x73, 0x68, 0x61,
  0x70, 0x65, 0x2f, 0x73, 0x68, 0x61, 0x70, 0x65, 0x2f, 0x31, 0x00, 0x00,
  0x00, 0x00, 0x00, 0x00, 0xc2, 0xff, 0xff, 0xff, 0x00, 0x00, 0x00, 0x01,
  0x14, 0x00, 0x00, 0x00, 0x14, 0x00, 0x00, 0x00, 0x03, 0x00, 0x00, 0x00,
  0x00, 0x00, 0x00, 0x02, 0x1c, 0x00, 0x00, 0x00, 0xac, 0xff, 0xff, 0xff,
  0x0e, 0x00, 0x00, 0x00, 0x61, 0x72, 0x69, 0x74, 0x68, 0x2e, 0x63, 0x6f,
  0x6e, 0x73, 0x74, 0x61, 0x6e, 0x74, 0x00, 0x00, 0x01, 0x00, 0x00, 0x00,
  0x01, 0x00, 0x00, 0x00, 0x00, 0x00, 0x16, 0x00, 0x1c, 0x00, 0x18, 0x00,
  0x17, 0x00, 0x10, 0x00, 0x0c, 0x00, 0x08, 0x00, 0x00, 0x00, 0x00, 0x00,
  0x00, 0x00, 0x07, 0x00, 0x16, 0x00, 0x00, 0x00, 0x00, 0x00, 0x00, 0x01,
  0x18, 0x00, 0x00, 0x00, 0x18, 0x00, 0x00, 0x00, 0x02, 0x00, 0x00, 0x00,
  0x00, 0x00, 0x00, 0x02, 0x40, 0x00, 0x00, 0x00, 0x04, 0x00, 0x04, 0x00,
  0x04, 0x00, 0x00, 0x00, 0x2e, 0x00, 0x00, 0x00, 0x64, 0x72, 0x6f, 0x6e,
  0x65, 0x5f, 0x64, 0x65, 0x74, 0x65, 0x63, 0x74, 0x6f, 0x72, 0x5f, 0x31,
  0x2f, 0x66, 0x6c, 0x61, 0x74, 0x74, 0x65, 0x6e, 0x5f, 0x31, 0x2f, 0x73,
  0x74, 0x72, 0x69, 0x64, 0x65, 0x64, 0x5f, 0x73, 0x6c, 0x69, 0x63, 0x65,
  0x2f, 0x73, 0x74, 0x61, 0x63, 0x6b, 0x00, 0x00, 0x01, 0x00, 0x00, 0x00,
  0x01, 0x00, 0x00, 0x00, 0x00, 0x00, 0x16, 0x00, 0x20, 0x00, 0x1c, 0x00,
  0x1b, 0x00, 0x14, 0x00, 0x10, 0x00, 0x0c, 0x00, 0x00, 0x00, 0x00, 0x00,
  0x08, 0x00, 0x07, 0x00, 0x16, 0x00, 0x00, 0x00, 0x00, 0x00, 0x00, 0x01,
  0x18, 0x00, 0x00, 0x00, 0x34, 0x00, 0x00, 0x00, 0x50, 0x00, 0x00, 0x00,
  0x01, 0x00, 0x00, 0x00, 0x00, 0x00, 0x00, 0x09, 0x64, 0x00, 0x00, 0x00,
  0x04, 0x00, 0x00, 0x00, 0xff, 0xff, 0xff, 0xff, 0x10, 0x00, 0x00, 0x00,
  0x14, 0x00, 0x00, 0x00, 0x01, 0x00, 0x00, 0x00, 0x0c, 0x00, 0x0c, 0x00,
  0x00, 0x00, 0x00, 0x00, 0x08, 0x00, 0x04, 0x00, 0x0c, 0x00, 0x00, 0x00,
  0x08, 0x00, 0x00, 0x00, 0x10, 0x00, 0x00, 0x00, 0x01, 0x00, 0x00, 0x00,
  0x05, 0x00, 0x00, 0x00, 0x00, 0x00, 0x00, 0x00, 0x01, 0x00, 0x00, 0x00,
  0x91, 0x61, 0x84, 0x3c, 0x1b, 0x00, 0x00, 0x00, 0x73, 0x65, 0x72, 0x76,
  0x69, 0x6e, 0x67, 0x5f, 0x64, 0x65, 0x66, 0x61, 0x75, 0x6c, 0x74, 0x5f,
  0x6d, 0x66, 0x65, 0x5f, 0x69, 0x6e, 0x70, 0x75, 0x74, 0x3a, 0x30, 0x00,
  0x04, 0x00, 0x00, 0x00, 0x01, 0x00, 0x00, 0x00, 0x10, 0x00, 0x00, 0x00,
  0x14, 0x00, 0x00, 0x00, 0x01, 0x00, 0x00, 0x00, 0x08, 0x00, 0x00, 0x00,
  0x98, 0x00, 0x00, 0x00, 0x78, 0x00, 0x00, 0x00, 0x68, 0x00, 0x00, 0x00,
  0x4c, 0x00, 0x00, 0x00, 0x3c, 0x00, 0x00, 0x00, 0x2c, 0x00, 0x00, 0x00,
  0x18, 0x00, 0x00, 0x00, 0x04, 0x00, 0x00, 0x00, 0x94, 0xff, 0xff, 0xff,
  0x0e, 0x00, 0x00, 0x00, 0x02, 0x00, 0x00, 0x00, 0x00, 0x00, 0x00, 0x0e,
  0xa4, 0xff, 0xff, 0xff, 0x09, 0x00, 0x00, 0x00, 0x04, 0x00, 0x00, 0x00,
  0x00, 0x00, 0x00, 0x09, 0xdc, 0xff, 0xff, 0xff, 0x16, 0x00, 0x00, 0x00,
  0x00, 0x00, 0x00, 0x16, 0xe8, 0xff, 0xff, 0xff, 0x53, 0x00, 0x00, 0x00,
  0x00, 0x00, 0x00, 0x53, 0xf4, 0xff, 0xff, 0xff, 0x2d, 0x00, 0x00, 0x00,
  0x00, 0x00, 0x00, 0x2d, 0x0c, 0x00, 0x0c, 0x00, 0x0b, 0x00, 0x00, 0x00,
  0x00, 0x00, 0x04, 0x00, 0x0c, 0x00, 0x00, 0x00, 0x4d, 0x00, 0x00, 0x00,
  0x00, 0x00, 0x00, 0x4d, 0xf0, 0xff, 0xff, 0xff, 0x11, 0x00, 0x00, 0x00,
  0x02, 0x00, 0x00, 0x00, 0x00, 0x00, 0x00, 0x11, 0x0c, 0x00, 0x10, 0x00,
  0x0f, 0x00, 0x00, 0x00, 0x08, 0x00, 0x04, 0x00, 0x0c, 0x00, 0x00, 0x00,
  0x03, 0x00, 0x00, 0x00, 0x03, 0x00, 0x00, 0x00, 0x00, 0x00, 0x00, 0x03
};

const unsigned int g_drone_model_len = 8880;

#endif  // DRONE_MODEL_H
